{
  "version": "1.0",
  "truncation": {
    "direction": "Right",
    "max_length": 1024,
    "strategy": "LongestFirst",
    "stride": 0
  },
  "padding": {
    "strategy": "BatchLongest",
    "direction": "Right",
    "pad_to_multiple_of": null,
    "pad_id": 1,
    "pad_type_id": 0,
    "pad_token": "<pad>"
  },
  "added_tokens": [
    {
      "id": 1,
      "content": "<pad>",
      "single_word": false,
      "lstrip": false,
      "rstrip": false,
      "normalized": false,
      "special": true
    }
  ],
  "normalizer": {
    "type": "Sequence",
    "normalizers": [
      {
        "type": "StripAccents"
      },
      {
        "type": "Replace",
        "pattern": {
          "String": " "
        },
        "content": "Ä"
      },
      {
        "type": "Replace",
        "pattern": {
          "String": "(/\\*([^*]|(\\*+[^*/]))*\\*+/)|(//.*)"
        },
        "content": ""
      },
      {
        "type": "Replace",
        "pattern": {
          "String": "\n"
        },
        "content": ""
      },
      {
        "type": "Replace",
        "pattern": {
          "String": "\t"
        },
        "content": ""
      }
    ]
  },
  "pre_tokenizer": null,
  "post_processor": {
    "type": "TemplateProcessing",
    "single": [
      {
        "SpecialToken": {
          "id": "<s>",
          "type_id": 0
        }
      },
      {
        "Sequence": {
          "id": "A",
          "type_id": 0
        }
      },
      {
        "SpecialToken": {
          "id": "</s>",
          "type_id": 0
        }
      }
    ],
    "pair": [
      {
        "Sequence": {
          "id": "A",
          "type_id": 0
        }
      },
      {
        "Sequence": {
          "id": "B",
          "type_id": 1
        }
      }
    ],
    "special_tokens": {
      "</s>": {
        "id": "</s>",
        "ids": [
          2
        ],
        "tokens": [
          "</s>"
        ]
      },
      "<mask>": {
        "id": "<mask>",
        "ids": [
          4
        ],
        "tokens": [
          "<mask>"
        ]
      },
      "<pad>": {
        "id": "<pad>",
        "ids": [
          1
        ],
        "tokens": [
          "<pad>"
        ]
      },
      "<s>": {
        "id": "<s>",
        "ids": [
          0
        ],
        "tokens": [
          "<s>"
        ]
      },
      "<unk>": {
        "id": "<unk>",
        "ids": [
          3
        ],
        "tokens": [
          "<unk>"
        ]
      }
    }
  },
  "decoder": null,
  "model": {
    "type": "BPE",
    "dropout": null,
    "unk_token": "<unk>",
    "continuing_subword_prefix": null,
    "end_of_word_suffix": null,
    "fuse_unk": false,
    "byte_fallback": false,
    "vocab": {
      "<s>": 0,
      "<pad>": 1,
      "</s>": 2,
      "<unk>": 3,
      "<mask>": 4,
      "char": 5,
      "int": 6,
      "switch": 7,
      "case": 8,
      "if": 9,
      "break": 10,
      "for": 11,
      "const": 12,
      "unsigned": 13,
      "struct": 14,
      "default": 15,
      "return": 16,
      "long": 17,
      "goto": 18,
      "this": 19,
      "enum": 20,
      "bool": 21,
      "static": 22,
      "false": 23,
      "true": 24,
      "new": 25,
      "delete": 26,
      "while": 27,
      "double": 28,
      "else": 29,
      "private": 30,
      "do": 31,
      "sizeof": 32,
      "void": 33,
      "continue": 34,
      "__attribute__": 35,
      "short": 36,
      "throw": 37,
      "float": 38,
      "register": 39,
      "__FUNCTION__": 40,
      "static_cast": 41,
      "__func__": 42,
      "class": 43,
      "try": 44,
      "dynamic_cast": 45,
      "template": 46,
      "union": 47,
      "reinterpret_cast": 48,
      "catch": 49,
      "operator": 50,
      "const_cast": 51,
      "using": 52,
      "namespace": 53,
      "typename": 54,
      "wchar_t": 55,
      "not": 56,
      "typeof": 57,
      "__label__": 58,
      "__PRETTY_FUNCTION__": 59,
      "auto": 60,
      "__extension__": 61,
      "volatile": 62,
      "__asm__": 63,
      "__volatile__": 64,
      "extern": 65,
      "asm": 66,
      "signed": 67,
      "typedef": 68,
      "typeid": 69,
      "and": 70,
      "or": 71,
      "public": 72,
      "virtual": 73,
      "nullptr": 74,
      "__restrict": 75,
      "__asm": 76,
      "__typeof__": 77,
      "xor": 78,
      "__complex__": 79,
      "__real__": 80,
      "__imag__": 81,
      "not_eq": 82,
      "export": 83,
      "compl": 84,
      "__alignof__": 85,
      "__restrict__": 86,
      "__cdecl": 87,
      "bitor": 88,
      "protected": 89,
      "explicit": 90,
      "friend": 91,
      "decltype": 92,
      "mutable": 93,
      "inline": 94,
      "__const": 95,
      "__stdcall": 96,
      "char16_t": 97,
      "char32_t": 98,
      "_Decimal64": 99,
      "constexpr": 100,
      "bitand": 101,
      "alignof": 102,
      "static_assert": 103,
      "__attribute": 104,
      "thread_local": 105,
      "__alignof": 106,
      "__builtin_va_arg": 107,
      "_Decimal32": 108,
      "\"": 109,
      "(": 110,
      "*": 111,
      ",": 112,
      ")": 113,
      "{": 114,
      ";": 115,
      "->": 116,
      ":": 117,
      ".": 118,
      "-": 119,
      "=": 120,
      "+": 121,
      "<": 122,
      "++": 123,
      "+=": 124,
      "==": 125,
      "||": 126,
      "!=": 127,
      "}": 128,
      "/": 129,
      "!": 130,
      ">=": 131,
      "[": 132,
      "]": 133,
      "&": 134,
      "::": 135,
      "&&": 136,
      ">": 137,
      "#": 138,
      "--": 139,
      "<=": 140,
      "-=": 141,
      "|": 142,
      "%": 143,
      "?": 144,
      "<<": 145,
      ">>": 146,
      "|=": 147,
      "&=": 148,
      "^": 149,
      "~": 150,
      "^=": 151,
      "...": 152,
      "/=": 153,
      "*=": 154,
      ">>=": 155,
      "<<=": 156,
      "%=": 157,
      "##": 158,
      "->*": 159,
      "\\": 160,
      ".*": 161,
      "@": 162,
      "_Exit": 163,
      "abs": 164,
      "acos": 165,
      "acosh": 166,
      "asctime": 167,
      "asin": 168,
      "asinh": 169,
      "assert": 170,
      "at_quick_exit": 171,
      "atan": 172,
      "atan2": 173,
      "atanh": 174,
      "atexit": 175,
      "atof": 176,
      "atol": 177,
      "bsearch": 178,
      "btowc": 179,
      "c16rtomb": 180,
      "c32rtomb": 181,
      "cbrt": 182,
      "ceil": 183,
      "cerr": 184,
      "cin": 185,
      "clearerr": 186,
      "clock": 187,
      "clog": 188,
      "copysign": 189,
      "cos": 190,
      "cosh": 191,
      "cout": 192,
      "ctime": 193,
      "difftime": 194,
      "div": 195,
      "errno": 196,
      "exp": 197,
      "exp2": 198,
      "expm1": 199,
      "fabs": 200,
      "fclose": 201,
      "fdim": 202,
      "feclearexcept": 203,
      "fegetenv": 204,
      "fegetexceptflag": 205,
      "fegetround": 206,
      "feholdexcept": 207,
      "feof": 208,
      "feraiseexcept": 209,
      "ferror": 210,
      "fesetenv": 211,
      "fesetexceptflag": 212,
      "fesetround": 213,
      "fetestexcept": 214,
      "feupdateenv": 215,
      "fflush": 216,
      "fgetc": 217,
      "fgetpos": 218,
      "fgets": 219,
      "fgetwc": 220,
      "fgetws": 221,
      "floor": 222,
      "fma": 223,
      "fmax": 224,
      "fmod": 225,
      "fopen": 226,
      "fprintf": 227,
      "fputc": 228,
      "fputs": 229,
      "fputwc": 230,
      "fputws": 231,
      "fread": 232,
      "free": 233,
      "freopen": 234,
      "frexp": 235,
      "fscanf": 236,
      "fseek": 237,
      "fsetpos": 238,
      "ftell": 239,
      "fwide": 240,
      "fwprintf": 241,
      "fwrite": 242,
      "fwscanf": 243,
      "getc": 244,
      "getchar": 245,
      "getenv": 246,
      "gets": 247,
      "getwc": 248,
      "getwchar": 249,
      "gmtime": 250,
      "hypot": 251,
      "ilogb": 252,
      "imaxabs": 253,
      "imaxdiv": 254,
      "isblank": 255,
      "iscntrl": 256,
      "isdigit": 257,
      "isgraph": 258,
      "islower": 259,
      "isprint": 260,
      "ispunct": 261,
      "isspace": 262,
      "isupper": 263,
      "iswalnum": 264,
      "iswalpha": 265,
      "iswblank": 266,
      "iswcntrl": 267,
      "iswctype": 268,
      "iswdigit": 269,
      "iswgraph": 270,
      "iswlower": 271,
      "iswprint": 272,
      "iswpunct": 273,
      "iswspace": 274,
      "iswupper": 275,
      "iswxdigit": 276,
      "isxdigit": 277,
      "labs": 278,
      "ldexp": 279,
      "ldiv": 280,
      "llabs": 281,
      "lldiv": 282,
      "llrint": 283,
      "llround": 284,
      "localeconv": 285,
      "localtime": 286,
      "log": 287,
      "log10": 288,
      "log1p": 289,
      "log2": 290,
      "logb": 291,
      "longjmp": 292,
      "lrint": 293,
      "lround": 294,
      "malloc": 295,
      "mblen": 296,
      "mbrlen": 297,
      "mbrtoc16": 298,
      "mbrtoc32": 299,
      "mbrtowc": 300,
      "mbsinit": 301,
      "mbsrtowcs": 302,
      "mbstowcs": 303,
      "mbtowc": 304,
      "memchr": 305,
      "memcmp": 306,
      "memcpy": 307,
      "memmove": 308,
      "memset": 309,
      "mktime": 310,
      "modf": 311,
      "nan": 312,
      "nearbyint": 313,
      "nextafter": 314,
      "nexttoward": 315,
      "perror": 316,
      "pow": 317,
      "printf": 318,
      "putc": 319,
      "putchar": 320,
      "puts": 321,
      "putwchar": 322,
      "qsort": 323,
      "quick_exit": 324,
      "raise": 325,
      "realloc": 326,
      "remainder": 327,
      "remove": 328,
      "remquo": 329,
      "rename": 330,
      "rewind": 331,
      "rint": 332,
      "round": 333,
      "sca": 334,
      "scalbln": 335,
      "scalbn": 336,
      "setbuf": 337,
      "setjmp": 338,
      "setlocale": 339,
      "setvbuf": 340,
      "signal": 341,
      "sin": 342,
      "sinh": 343,
      "snprintf": 344,
      "sprintf": 345,
      "sqrt": 346,
      "srand": 347,
      "sscanf": 348,
      "strcat": 349,
      "strchr": 350,
      "strcmp": 351,
      "strcoll": 352,
      "strcpy": 353,
      "strcspn": 354,
      "strerror": 355,
      "strftime": 356,
      "strlen": 357,
      "strncat": 358,
      "strncmp": 359,
      "strncpy": 360,
      "strpbrk": 361,
      "strrchr": 362,
      "strspn": 363,
      "strstr": 364,
      "strtod": 365,
      "strtoimax": 366,
      "strtok": 367,
      "strtol": 368,
      "strtoll": 369,
      "strtoull": 370,
      "strtoumax": 371,
      "strxfrm": 372,
      "swprintf": 373,
      "swscanf": 374,
      "tan": 375,
      "tanh": 376,
      "time": 377,
      "tmpfile": 378,
      "tmpnam": 379,
      "tolower": 380,
      "toupper": 381,
      "towctrans": 382,
      "towlower": 383,
      "towupper": 384,
      "trunc": 385,
      "ungetc": 386,
      "ungetwc": 387,
      "vfprintf": 388,
      "vfscanf": 389,
      "vfwprintf": 390,
      "vfwscanf": 391,
      "vprintf": 392,
      "vscanf": 393,
      "vsfscanf": 394,
      "vsnprintf": 395,
      "vsprintf": 396,
      "vsscanf": 397,
      "vswprintf": 398,
      "vwprintf": 399,
      "vwscanf": 400,
      "wcerr": 401,
      "wcin": 402,
      "wclog": 403,
      "wcout": 404,
      "wcrtomb": 405,
      "wcscat": 406,
      "wcschr": 407,
      "wcscmp": 408,
      "wcscoll": 409,
      "wcscpy": 410,
      "wcscspn": 411,
      "wcsftime": 412,
      "wcslne": 413,
      "wcsncat": 414,
      "wcsncmp": 415,
      "wcsncpy": 416,
      "wcspbrk": 417,
      "wcsrchr": 418,
      "wcsrtombs": 419,
      "wcsspn": 420,
      "wcsstr": 421,
      "wcstod": 422,
      "wcstof": 423,
      "wcstoimax": 424,
      "wcstok": 425,
      "wcstol": 426,
      "wcstold": 427,
      "wcstoll": 428,
      "wcstombs": 429,
      "wcstoul": 430,
      "wcstoull": 431,
      "wcstoumax": 432,
      "wcsxfrm": 433,
      "wctob": 434,
      "wctomb": 435,
      "wctrans": 436,
      "wctype": 437,
      "wmemchr": 438,
      "wmemcmp": 439,
      "wmemcpy": 440,
      "wmemmove": 441,
      "wmemset": 442,
      "wprintf": 443,
      "wscanf": 444,
      "\u0001": 445,
      "\u0002": 446,
      "\u0003": 447,
      "\u0004": 448,
      "\u0005": 449,
      "\u0006": 450,
      "\u0007": 451,
      "\b": 452,
      "\u000b": 453,
      "\f": 454,
      "\r": 455,
      "\u000e": 456,
      "\u000f": 457,
      "\u0010": 458,
      "\u0011": 459,
      "\u0012": 460,
      "\u0013": 461,
      "\u0014": 462,
      "\u0015": 463,
      "\u0016": 464,
      "\u0017": 465,
      "\u0018": 466,
      "\u0019": 467,
      "\u001a": 468,
      "\u001b": 469,
      "\u001c": 470,
      "\u001d": 471,
      "\u001e": 472,
      "\u001f": 473,
      "$": 474,
      "'": 475,
      "0": 476,
      "1": 477,
      "2": 478,
      "3": 479,
      "4": 480,
      "5": 481,
      "6": 482,
      "7": 483,
      "8": 484,
      "9": 485,
      "A": 486,
      "B": 487,
      "C": 488,
      "D": 489,
      "E": 490,
      "F": 491,
      "G": 492,
      "H": 493,
      "I": 494,
      "J": 495,
      "K": 496,
      "L": 497,
      "M": 498,
      "N": 499,
      "O": 500,
      "P": 501,
      "Q": 502,
      "R": 503,
      "S": 504,
      "T": 505,
      "U": 506,
      "V": 507,
      "W": 508,
      "X": 509,
      "Y": 510,
      "Z": 511,
      "_": 512,
      "`": 513,
      "a": 514,
      "b": 515,
      "c": 516,
      "d": 517,
      "e": 518,
      "f": 519,
      "g": 520,
      "h": 521,
      "i": 522,
      "j": 523,
      "k": 524,
      "l": 525,
      "m": 526,
      "n": 527,
      "o": 528,
      "p": 529,
      "q": 530,
      "r": 531,
      "s": 532,
      "t": 533,
      "u": 534,
      "v": 535,
      "w": 536,
      "x": 537,
      "y": 538,
      "z": 539,
      "": 540,
      "": 541,
      "": 542,
      "": 543,
      "": 544,
      "": 545,
      "": 546,
      " ": 547,
      "¡": 548,
      "¢": 549,
      "£": 550,
      "¤": 551,
      "¥": 552,
      "¦": 553,
      "§": 554,
      "¨": 555,
      "©": 556,
      "ª": 557,
      "«": 558,
      "¬": 559,
      "­": 560,
      "®": 561,
      "¯": 562,
      "°": 563,
      "±": 564,
      "²": 565,
      "³": 566,
      "´": 567,
      "µ": 568,
      "¶": 569,
      "·": 570,
      "¸": 571,
      "¹": 572,
      "º": 573,
      "»": 574,
      "¼": 575,
      "½": 576,
      "¾": 577,
      "¿": 578,
      "À": 579,
      "Á": 580,
      "Â": 581,
      "Ã": 582,
      "Ä": 583,
      "Å": 584,
      "Æ": 585,
      "Ç": 586,
      "È": 587,
      "É": 588,
      "Ê": 589,
      "Ë": 590,
      "Ì": 591,
      "Í": 592,
      "Î": 593,
      "Ï": 594,
      "Ð": 595,
      "Ñ": 596,
      "Ò": 597,
      "Ó": 598,
      "Ô": 599,
      "Õ": 600,
      "Ö": 601,
      "×": 602,
      "Ø": 603,
      "Ù": 604,
      "Ú": 605,
      "Û": 606,
      "Ü": 607,
      "Ý": 608,
      "Þ": 609,
      "ß": 610,
      "à": 611,
      "á": 612,
      "â": 613,
      "ã": 614,
      "ä": 615,
      "å": 616,
      "æ": 617,
      "ç": 618,
      "è": 619,
      "é": 620,
      "ê": 621,
      "ë": 622,
      "ì": 623,
      "í": 624,
      "î": 625,
      "ï": 626,
      "ð": 627,
      "ñ": 628,
      "ò": 629,
      "ó": 630,
      "ô": 631,
      "õ": 632,
      "ö": 633,
      "÷": 634,
      "ø": 635,
      "ù": 636,
      "ú": 637,
      "û": 638,
      "ü": 639,
      "ý": 640,
      "þ": 641,
      "ÿ": 642,
      "ă": 643,
      "ą": 644,
      "Ć": 645,
      "ć": 646,
      "Ĉ": 647,
      "Č": 648,
      "č": 649,
      "Đ": 650,
      "đ": 651,
      "ē": 652,
      "ę": 653,
      "ě": 654,
      "ğ": 655,
      "ĩ": 656,
      "ī": 657,
      "İ": 658,
      "ı": 659,
      "Ĳ": 660,
      "ĳ": 661,
      "Ľ": 662,
      "ł": 663,
      "ń": 664,
      "Œ": 665,
      "œ": 666,
      "ř": 667,
      "ś": 668,
      "Ş": 669,
      "ş": 670,
      "Š": 671,
      "š": 672,
      "ť": 673,
      "ŭ": 674,
      "Ÿ": 675,
      "ź": 676,
      "ż": 677,
      "Ž": 678,
      "ž": 679,
      "ſ": 680,
      "ƒ": 681,
      "Ƭ": 682,
      "ư": 683,
      "ǃ": 684,
      "ǝ": 685,
      "ș": 686,
      "ț": 687,
      "ɡ": 688,
      "ɸ": 689,
      "ʻ": 690,
      "ʼ": 691,
      "ʿ": 692,
      "ˆ": 693,
      "˜": 694,
      "ͼ": 695,
      "Ά": 696,
      "Έ": 697,
      "Ή": 698,
      "Ί": 699,
      "Ό": 700,
      "Ύ": 701,
      "Ώ": 702,
      "ΐ": 703,
      "Α": 704,
      "Β": 705,
      "Γ": 706,
      "Δ": 707,
      "Ε": 708,
      "Ζ": 709,
      "Η": 710,
      "Θ": 711,
      "Ι": 712,
      "Κ": 713,
      "Λ": 714,
      "Μ": 715,
      "Ν": 716,
      "Ξ": 717,
      "Ο": 718,
      "Π": 719,
      "Ρ": 720,
      "Σ": 721,
      "Τ": 722,
      "Υ": 723,
      "Φ": 724,
      "Χ": 725,
      "Ψ": 726,
      "Ω": 727,
      "Ϊ": 728,
      "Ϋ": 729,
      "ά": 730,
      "έ": 731,
      "ή": 732,
      "ί": 733,
      "ΰ": 734,
      "α": 735,
      "β": 736,
      "γ": 737,
      "δ": 738,
      "ε": 739,
      "ζ": 740,
      "η": 741,
      "θ": 742,
      "ι": 743,
      "κ": 744,
      "λ": 745,
      "μ": 746,
      "ν": 747,
      "ξ": 748,
      "ο": 749,
      "π": 750,
      "ρ": 751,
      "ς": 752,
      "σ": 753,
      "τ": 754,
      "υ": 755,
      "φ": 756,
      "χ": 757,
      "ψ": 758,
      "ω": 759,
      "ϊ": 760,
      "ϋ": 761,
      "ό": 762,
      "ύ": 763,
      "ώ": 764,
      "Ё": 765,
      "І": 766,
      "А": 767,
      "Б": 768,
      "В": 769,
      "Г": 770,
      "Д": 771,
      "Е": 772,
      "Ж": 773,
      "З": 774,
      "И": 775,
      "Й": 776,
      "К": 777,
      "Л": 778,
      "М": 779,
      "Н": 780,
      "О": 781,
      "П": 782,
      "Р": 783,
      "С": 784,
      "Т": 785,
      "У": 786,
      "Ф": 787,
      "Х": 788,
      "Ц": 789,
      "Ч": 790,
      "Ш": 791,
      "Щ": 792,
      "Ъ": 793,
      "Ы": 794,
      "Ь": 795,
      "Э": 796,
      "Ю": 797,
      "Я": 798,
      "а": 799,
      "б": 800,
      "в": 801,
      "г": 802,
      "д": 803,
      "е": 804,
      "ж": 805,
      "з": 806,
      "и": 807,
      "й": 808,
      "к": 809,
      "л": 810,
      "м": 811,
      "н": 812,
      "о": 813,
      "п": 814,
      "р": 815,
      "с": 816,
      "т": 817,
      "у": 818,
      "ф": 819,
      "х": 820,
      "ц": 821,
      "ч": 822,
      "ш": 823,
      "щ": 824,
      "ъ": 825,
      "ы": 826,
      "ь": 827,
      "э": 828,
      "ю": 829,
      "я": 830,
      "ё": 831,
      "є": 832,
      "і": 833,
      "ї": 834,
      "ў": 835,
      "ґ": 836,
      "Ӏ": 837,
      "Կ": 838,
      "Հ": 839,
      "ա": 840,
      "բ": 841,
      "գ": 842,
      "դ": 843,
      "ե": 844,
      "է": 845,
      "ը": 846,
      "թ": 847,
      "ի": 848,
      "լ": 849,
      "խ": 850,
      "ծ": 851,
      "կ": 852,
      "հ": 853,
      "ձ": 854,
      "ղ": 855,
      "մ": 856,
      "յ": 857,
      "ն": 858,
      "շ": 859,
      "ո": 860,
      "պ": 861,
      "ջ": 862,
      "ս": 863,
      "վ": 864,
      "տ": 865,
      "ր": 866,
      "ց": 867,
      "ւ": 868,
      "փ": 869,
      "և": 870,
      "א": 871,
      "ב": 872,
      "ג": 873,
      "ד": 874,
      "ה": 875,
      "ו": 876,
      "ז": 877,
      "ח": 878,
      "ט": 879,
      "י": 880,
      "ך": 881,
      "כ": 882,
      "ל": 883,
      "ם": 884,
      "מ": 885,
      "ן": 886,
      "נ": 887,
      "ס": 888,
      "ע": 889,
      "ף": 890,
      "פ": 891,
      "ץ": 892,
      "צ": 893,
      "ק": 894,
      "ר": 895,
      "ש": 896,
      "ת": 897,
      "،": 898,
      "؟": 899,
      "ء": 900,
      "آ": 901,
      "أ": 902,
      "إ": 903,
      "ئ": 904,
      "ا": 905,
      "ب": 906,
      "ة": 907,
      "ت": 908,
      "ث": 909,
      "ج": 910,
      "ح": 911,
      "خ": 912,
      "د": 913,
      "ذ": 914,
      "ر": 915,
      "ز": 916,
      "س": 917,
      "ش": 918,
      "ص": 919,
      "ض": 920,
      "ط": 921,
      "ظ": 922,
      "ع": 923,
      "غ": 924,
      "ف": 925,
      "ق": 926,
      "ك": 927,
      "ل": 928,
      "م": 929,
      "ن": 930,
      "ه": 931,
      "و": 932,
      "ي": 933,
      "١": 934,
      "٢": 935,
      "٣": 936,
      "پ": 937,
      "چ": 938,
      "ک": 939,
      "گ": 940,
      "ی": 941,
      "۳": 942,
      "۹": 943,
      "अ": 944,
      "आ": 945,
      "इ": 946,
      "ई": 947,
      "उ": 948,
      "ऊ": 949,
      "ऋ": 950,
      "ऌ": 951,
      "ऍ": 952,
      "ऎ": 953,
      "ए": 954,
      "ऐ": 955,
      "ऑ": 956,
      "ऒ": 957,
      "ओ": 958,
      "औ": 959,
      "क": 960,
      "ख": 961,
      "ग": 962,
      "घ": 963,
      "ङ": 964,
      "च": 965,
      "छ": 966,
      "ज": 967,
      "झ": 968,
      "ञ": 969,
      "ट": 970,
      "ठ": 971,
      "ड": 972,
      "ढ": 973,
      "ण": 974,
      "त": 975,
      "थ": 976,
      "द": 977,
      "ध": 978,
      "न": 979,
      "ऩ": 980,
      "प": 981,
      "फ": 982,
      "ब": 983,
      "भ": 984,
      "म": 985,
      "य": 986,
      "र": 987,
      "ऱ": 988,
      "ल": 989,
      "ळ": 990,
      "ऴ": 991,
      "व": 992,
      "श": 993,
      "ष": 994,
      "स": 995,
      "ह": 996,
      "।": 997,
      "०": 998,
      "१": 999,
      "॰": 1000,
      "আ": 1001,
      "উ": 1002,
      "এ": 1003,
      "ও": 1004,
      "ক": 1005,
      "খ": 1006,
      "গ": 1007,
      "ঘ": 1008,
      "চ": 1009,
      "ছ": 1010,
      "জ": 1011,
      "ঝ": 1012,
      "ঠ": 1013,
      "ড": 1014,
      "ণ": 1015,
      "ত": 1016,
      "থ": 1017,
      "দ": 1018,
      "ন": 1019,
      "প": 1020,
      "ব": 1021,
      "ভ": 1022,
      "ম": 1023,
      "য": 1024,
      "র": 1025,
      "ল": 1026,
      "স": 1027,
      "হ": 1028,
      "ਅ": 1029,
      "ਇ": 1030,
      "ਉ": 1031,
      "ਕ": 1032,
      "ਖ": 1033,
      "ਗ": 1034,
      "ਚ": 1035,
      "ਜ": 1036,
      "ਠ": 1037,
      "ਤ": 1038,
      "ਥ": 1039,
      "ਦ": 1040,
      "ਧ": 1041,
      "ਨ": 1042,
      "ਪ": 1043,
      "ਫ": 1044,
      "ਬ": 1045,
      "ਭ": 1046,
      "ਮ": 1047,
      "ਯ": 1048,
      "ਰ": 1049,
      "ਲ": 1050,
      "ਵ": 1051,
      "ਸ": 1052,
      "ਹ": 1053,
      "ੜ": 1054,
      "ੳ": 1055,
      "અ": 1056,
      "આ": 1057,
      "ઉ": 1058,
      "એ": 1059,
      "ક": 1060,
      "ખ": 1061,
      "ગ": 1062,
      "ચ": 1063,
      "છ": 1064,
      "જ": 1065,
      "ટ": 1066,
      "ડ": 1067,
      "ણ": 1068,
      "ત": 1069,
      "થ": 1070,
      "ધ": 1071,
      "ન": 1072,
      "પ": 1073,
      "બ": 1074,
      "ભ": 1075,
      "મ": 1076,
      "ય": 1077,
      "ર": 1078,
      "લ": 1079,
      "ળ": 1080,
      "વ": 1081,
      "શ": 1082,
      "સ": 1083,
      "હ": 1084,
      "ஃ": 1085,
      "அ": 1086,
      "உ": 1087,
      "ஔ": 1088,
      "க": 1089,
      "ங": 1090,
      "ச": 1091,
      "ஞ": 1092,
      "ட": 1093,
      "ண": 1094,
      "த": 1095,
      "ந": 1096,
      "ன": 1097,
      "ப": 1098,
      "ம": 1099,
      "ய": 1100,
      "ர": 1101,
      "ற": 1102,
      "ல": 1103,
      "ள": 1104,
      "ழ": 1105,
      "வ": 1106,
      "ஷ": 1107,
      "ஸ": 1108,
      "ஹ": 1109,
      "ఆ": 1110,
      "ఇ": 1111,
      "ఎ": 1112,
      "క": 1113,
      "గ": 1114,
      "చ": 1115,
      "ట": 1116,
      "డ": 1117,
      "త": 1118,
      "ద": 1119,
      "న": 1120,
      "ప": 1121,
      "ఫ": 1122,
      "బ": 1123,
      "భ": 1124,
      "మ": 1125,
      "య": 1126,
      "ర": 1127,
      "ల": 1128,
      "ళ": 1129,
      "వ": 1130,
      "శ": 1131,
      "ష": 1132,
      "స": 1133,
      "ಅ": 1134,
      "ಆ": 1135,
      "ಇ": 1136,
      "ಎ": 1137,
      "ಕ": 1138,
      "ಖ": 1139,
      "ಗ": 1140,
      "ಚ": 1141,
      "ಜ": 1142,
      "ಟ": 1143,
      "ಡ": 1144,
      "ತ": 1145,
      "ಥ": 1146,
      "ದ": 1147,
      "ಧ": 1148,
      "ನ": 1149,
      "ಪ": 1150,
      "ಫ": 1151,
      "ಬ": 1152,
      "ಮ": 1153,
      "ಯ": 1154,
      "ರ": 1155,
      "ಲ": 1156,
      "ಳ": 1157,
      "ವ": 1158,
      "ಶ": 1159,
      "ಷ": 1160,
      "ಸ": 1161,
      "ಹ": 1162,
      "അ": 1163,
      "ആ": 1164,
      "എ": 1165,
      "ക": 1166,
      "ഗ": 1167,
      "ങ": 1168,
      "ച": 1169,
      "ഛ": 1170,
      "ഞ": 1171,
      "ട": 1172,
      "ണ": 1173,
      "ത": 1174,
      "ന": 1175,
      "പ": 1176,
      "മ": 1177,
      "യ": 1178,
      "ര": 1179,
      "റ": 1180,
      "ല": 1181,
      "ള": 1182,
      "ഴ": 1183,
      "വ": 1184,
      "സ": 1185,
      "൧": 1186,
      "ർ": 1187,
      "ൽ": 1188,
      "ൾ": 1189,
      "ර": 1190,
      "ශ": 1191,
      "ก": 1192,
      "ฃ": 1193,
      "ค": 1194,
      "ง": 1195,
      "จ": 1196,
      "ช": 1197,
      "ด": 1198,
      "ต": 1199,
      "ถ": 1200,
      "ท": 1201,
      "ธ": 1202,
      "น": 1203,
      "บ": 1204,
      "ป": 1205,
      "พ": 1206,
      "ฟ": 1207,
      "ม": 1208,
      "ย": 1209,
      "ร": 1210,
      "ล": 1211,
      "ว": 1212,
      "ส": 1213,
      "ห": 1214,
      "อ": 1215,
      "ฯ": 1216,
      "ะ": 1217,
      "า": 1218,
      "ำ": 1219,
      "เ": 1220,
      "แ": 1221,
      "โ": 1222,
      "ใ": 1223,
      "ไ": 1224,
      "ๆ": 1225,
      "ກ": 1226,
      "ຂ": 1227,
      "ຄ": 1228,
      "ງ": 1229,
      "ຈ": 1230,
      "ຍ": 1231,
      "ດ": 1232,
      "ນ": 1233,
      "ບ": 1234,
      "ຟ": 1235,
      "ມ": 1236,
      "ລ": 1237,
      "ວ": 1238,
      "ສ": 1239,
      "ຫ": 1240,
      "ອ": 1241,
      "ຮ": 1242,
      "າ": 1243,
      "ຽ": 1244,
      "ເ": 1245,
      "ໄ": 1246,
      "ໆ": 1247,
      "༆": 1248,
      "က": 1249,
      "ခ": 1250,
      "စ": 1251,
      "ည": 1252,
      "တ": 1253,
      "န": 1254,
      "ပ": 1255,
      "မ": 1256,
      "ရ": 1257,
      "လ": 1258,
      "သ": 1259,
      "ሴ": 1260,
      "ក": 1261,
      "គ": 1262,
      "ង": 1263,
      "ច": 1264,
      "ញ": 1265,
      "ដ": 1266,
      "ត": 1267,
      "ថ": 1268,
      "ទ": 1269,
      "ន": 1270,
      "ប": 1271,
      "ផ": 1272,
      "ព": 1273,
      "ម": 1274,
      "យ": 1275,
      "រ": 1276,
      "ល": 1277,
      "វ": 1278,
      "ស": 1279,
      "ហ": 1280,
      "អ": 1281,
      "ឯ": 1282,
      "ឲ": 1283,
      "។": 1284,
      "ៗ": 1285,
      "᪀": 1286,
      "᪉": 1287,
      "ᵖ": 1288,
      "ẑ": 1289,
      "ẖ": 1290,
      "ạ": 1291,
      "ả": 1292,
      "ấ": 1293,
      "ầ": 1294,
      "ậ": 1295,
      "ắ": 1296,
      "ằ": 1297,
      "ặ": 1298,
      "ế": 1299,
      "ề": 1300,
      "ể": 1301,
      "ễ": 1302,
      "ệ": 1303,
      "ỉ": 1304,
      "ọ": 1305,
      "ỏ": 1306,
      "ố": 1307,
      "ổ": 1308,
      "ộ": 1309,
      "ớ": 1310,
      "ờ": 1311,
      "ợ": 1312,
      "ụ": 1313,
      "ủ": 1314,
      "ứ": 1315,
      "ừ": 1316,
      "ử": 1317,
      "ữ": 1318,
      "ự": 1319,
      "ἀ": 1320,
      "ἁ": 1321,
      "ἂ": 1322,
      "ἃ": 1323,
      "ἄ": 1324,
      "ἅ": 1325,
      "ἆ": 1326,
      "ἇ": 1327,
      "Ἀ": 1328,
      "Ἁ": 1329,
      "Ἂ": 1330,
      "Ἃ": 1331,
      "Ἄ": 1332,
      "Ἅ": 1333,
      "Ἆ": 1334,
      "Ἇ": 1335,
      "ἐ": 1336,
      "ἑ": 1337,
      "ἒ": 1338,
      "ἓ": 1339,
      "ἔ": 1340,
      "ἕ": 1341,
      "Ἐ": 1342,
      "Ἑ": 1343,
      "Ἒ": 1344,
      "Ἓ": 1345,
      "Ἔ": 1346,
      "Ἕ": 1347,
      "ἠ": 1348,
      "ἡ": 1349,
      "ἢ": 1350,
      "ἣ": 1351,
      "ἤ": 1352,
      "ἥ": 1353,
      "ἦ": 1354,
      "ἧ": 1355,
      "Ἠ": 1356,
      "Ἡ": 1357,
      "Ἢ": 1358,
      "Ἣ": 1359,
      "Ἤ": 1360,
      "Ἥ": 1361,
      "Ἦ": 1362,
      "Ἧ": 1363,
      "ἰ": 1364,
      "ἱ": 1365,
      "ἲ": 1366,
      "ἳ": 1367,
      "ἴ": 1368,
      "ἵ": 1369,
      "ἶ": 1370,
      "ἷ": 1371,
      "Ἰ": 1372,
      "Ἱ": 1373,
      "Ἲ": 1374,
      "Ἳ": 1375,
      "Ἴ": 1376,
      "Ἵ": 1377,
      "Ἶ": 1378,
      "Ἷ": 1379,
      "ὀ": 1380,
      "ὁ": 1381,
      "ὂ": 1382,
      "ὃ": 1383,
      "ὄ": 1384,
      "ὅ": 1385,
      "Ὀ": 1386,
      "Ὁ": 1387,
      "Ὂ": 1388,
      "Ὃ": 1389,
      "Ὄ": 1390,
      "Ὅ": 1391,
      "ὐ": 1392,
      "ὑ": 1393,
      "ὒ": 1394,
      "ὓ": 1395,
      "ὔ": 1396,
      "ὕ": 1397,
      "ὖ": 1398,
      "ὗ": 1399,
      "Ὑ": 1400,
      "Ὓ": 1401,
      "Ὕ": 1402,
      "Ὗ": 1403,
      "ὠ": 1404,
      "ὡ": 1405,
      "ὢ": 1406,
      "ὣ": 1407,
      "ὤ": 1408,
      "ὥ": 1409,
      "ὦ": 1410,
      "ὧ": 1411,
      "Ὠ": 1412,
      "Ὡ": 1413,
      "Ὢ": 1414,
      "Ὣ": 1415,
      "Ὤ": 1416,
      "Ὥ": 1417,
      "Ὦ": 1418,
      "Ὧ": 1419,
      "ὰ": 1420,
      "ά": 1421,
      "ὲ": 1422,
      "έ": 1423,
      "ὴ": 1424,
      "ή": 1425,
      "ὶ": 1426,
      "ί": 1427,
      "ὸ": 1428,
      "ό": 1429,
      "ὺ": 1430,
      "ύ": 1431,
      "ὼ": 1432,
      "ώ": 1433,
      "ᾀ": 1434,
      "ᾁ": 1435,
      "ᾄ": 1436,
      "ᾅ": 1437,
      "ᾆ": 1438,
      "ᾇ": 1439,
      "ᾈ": 1440,
      "ᾉ": 1441,
      "ᾌ": 1442,
      "ᾍ": 1443,
      "ᾎ": 1444,
      "ᾏ": 1445,
      "ᾐ": 1446,
      "ᾑ": 1447,
      "ᾔ": 1448,
      "ᾕ": 1449,
      "ᾖ": 1450,
      "ᾗ": 1451,
      "ᾘ": 1452,
      "ᾙ": 1453,
      "ᾜ": 1454,
      "ᾝ": 1455,
      "ᾞ": 1456,
      "ᾟ": 1457,
      "ᾠ": 1458,
      "ᾡ": 1459,
      "ᾤ": 1460,
      "ᾥ": 1461,
      "ᾦ": 1462,
      "ᾧ": 1463,
      "ᾨ": 1464,
      "ᾩ": 1465,
      "ᾬ": 1466,
      "ᾭ": 1467,
      "ᾮ": 1468,
      "ᾯ": 1469,
      "ᾳ": 1470,
      "ᾴ": 1471,
      "ᾶ": 1472,
      "ᾷ": 1473,
      "Ὰ": 1474,
      "Ά": 1475,
      "ᾼ": 1476,
      "ῃ": 1477,
      "ῄ": 1478,
      "ῆ": 1479,
      "ῇ": 1480,
      "Ὲ": 1481,
      "Έ": 1482,
      "Ὴ": 1483,
      "Ή": 1484,
      "ῌ": 1485,
      "ῒ": 1486,
      "ΐ": 1487,
      "ῖ": 1488,
      "Ὶ": 1489,
      "Ί": 1490,
      "ῢ": 1491,
      "ΰ": 1492,
      "ῤ": 1493,
      "ῦ": 1494,
      "Ὺ": 1495,
      "Ύ": 1496,
      "Ῥ": 1497,
      "ῳ": 1498,
      "ῴ": 1499,
      "ῶ": 1500,
      "ῷ": 1501,
      "Ὸ": 1502,
      "Ό": 1503,
      "Ὼ": 1504,
      "Ώ": 1505,
      "ῼ": 1506,
      " ": 1507,
      "‌": 1508,
      "‍": 1509,
      "‎": 1510,
      "‒": 1511,
      "–": 1512,
      "—": 1513,
      "‘": 1514,
      "’": 1515,
      "‚": 1516,
      "“": 1517,
      "”": 1518,
      "„": 1519,
      "†": 1520,
      "‡": 1521,
      "•": 1522,
      "…": 1523,
      "‰": 1524,
      "‱": 1525,
      "′": 1526,
      "″": 1527,
      "‹": 1528,
      "›": 1529,
      "‼": 1530,
      "⁄": 1531,
      "⁉": 1532,
      "⁰": 1533,
      "⁴": 1534,
      "⁵": 1535,
      "⁶": 1536,
      "⁷": 1537,
      "⁸": 1538,
      "⁹": 1539,
      "⁻": 1540,
      "€": 1541,
      "₹": 1542,
      "ℎ": 1543,
      "№": 1544,
      "™": 1545,
      "Ω": 1546,
      "ℹ": 1547,
      "Ⅾ": 1548,
      "ⅽ": 1549,
      "ⅿ": 1550,
      "←": 1551,
      "↑": 1552,
      "→": 1553,
      "↓": 1554,
      "↕": 1555,
      "↘": 1556,
      "↩": 1557,
      "↪": 1558,
      "↳": 1559,
      "⇅": 1560,
      "⇡": 1561,
      "⇧": 1562,
      "⇪": 1563,
      "∀": 1564,
      "∆": 1565,
      "−": 1566,
      "∘": 1567,
      "∙": 1568,
      "√": 1569,
      "∞": 1570,
      "≤": 1571,
      "⋯": 1572,
      "⌃": 1573,
      "⌘": 1574,
      "⌚": 1575,
      "⌥": 1576,
      "⍻": 1577,
      "⍽": 1578,
      "␣": 1579,
      "①": 1580,
      "②": 1581,
      "③": 1582,
      "─": 1583,
      "━": 1584,
      "│": 1585,
      "┄": 1586,
      "┌": 1587,
      "┐": 1588,
      "┑": 1589,
      "└": 1590,
      "┘": 1591,
      "├": 1592,
      "┤": 1593,
      "┪": 1594,
      "┬": 1595,
      "┯": 1596,
      "┴": 1597,
      "┼": 1598,
      "═": 1599,
      "║": 1600,
      "╔": 1601,
      "╗": 1602,
      "╚": 1603,
      "╝": 1604,
      "╠": 1605,
      "╣": 1606,
      "╭": 1607,
      "╮": 1608,
      "╯": 1609,
      "╰": 1610,
      "▄": 1611,
      "▆": 1612,
      "█": 1613,
      "▉": 1614,
      "▊": 1615,
      "▋": 1616,
      "▌": 1617,
      "▍": 1618,
      "▎": 1619,
      "▏": 1620,
      "░": 1621,
      "□": 1622,
      "▲": 1623,
      "▴": 1624,
      "▶": 1625,
      "▼": 1626,
      "▾": 1627,
      "◇": 1628,
      "◎": 1629,
      "●": 1630,
      "◯": 1631,
      "☃": 1632,
      "★": 1633,
      "☆": 1634,
      "☣": 1635,
      "☼": 1636,
      "♀": 1637,
      "♥": 1638,
      "♪": 1639,
      "♻": 1640,
      "⚖": 1641,
      "⚠": 1642,
      "⚪": 1643,
      "⚫": 1644,
      "✒": 1645,
      "✓": 1646,
      "✔": 1647,
      "✗": 1648,
      "✘": 1649,
      "✪": 1650,
      "✴": 1651,
      "❌": 1652,
      "❓": 1653,
      "❗": 1654,
      "❤": 1655,
      "➔": 1656,
      "➡": 1657,
      "⤴": 1658,
      "⨉": 1659,
      "⬅": 1660,
      "⬆": 1661,
      "⬛": 1662,
      "　": 1663,
      "、": 1664,
      "。": 1665,
      "々": 1666,
      "〈": 1667,
      "〉": 1668,
      "《": 1669,
      "》": 1670,
      "「": 1671,
      "」": 1672,
      "【": 1673,
      "】": 1674,
      "〒": 1675,
      "〜": 1676,
      "あ": 1677,
      "い": 1678,
      "う": 1679,
      "え": 1680,
      "お": 1681,
      "か": 1682,
      "が": 1683,
      "き": 1684,
      "ぎ": 1685,
      "く": 1686,
      "ぐ": 1687,
      "け": 1688,
      "げ": 1689,
      "こ": 1690,
      "ご": 1691,
      "さ": 1692,
      "ざ": 1693,
      "し": 1694,
      "じ": 1695,
      "す": 1696,
      "ず": 1697,
      "せ": 1698,
      "ぜ": 1699,
      "そ": 1700,
      "ぞ": 1701,
      "た": 1702,
      "だ": 1703,
      "ち": 1704,
      "ぢ": 1705,
      "っ": 1706,
      "つ": 1707,
      "づ": 1708,
      "て": 1709,
      "で": 1710,
      "と": 1711,
      "ど": 1712,
      "な": 1713,
      "に": 1714,
      "ぬ": 1715,
      "ね": 1716,
      "の": 1717,
      "は": 1718,
      "ば": 1719,
      "ぱ": 1720,
      "ひ": 1721,
      "び": 1722,
      "ぴ": 1723,
      "ふ": 1724,
      "ぶ": 1725,
      "ぷ": 1726,
      "へ": 1727,
      "べ": 1728,
      "ぺ": 1729,
      "ほ": 1730,
      "ぼ": 1731,
      "ぽ": 1732,
      "ま": 1733,
      "み": 1734,
      "む": 1735,
      "め": 1736,
      "も": 1737,
      "ゃ": 1738,
      "や": 1739,
      "ゅ": 1740,
      "ゆ": 1741,
      "ょ": 1742,
      "よ": 1743,
      "ら": 1744,
      "り": 1745,
      "る": 1746,
      "れ": 1747,
      "ろ": 1748,
      "わ": 1749,
      "を": 1750,
      "ん": 1751,
      "ァ": 1752,
      "ア": 1753,
      "ィ": 1754,
      "イ": 1755,
      "ゥ": 1756,
      "ウ": 1757,
      "ェ": 1758,
      "エ": 1759,
      "ォ": 1760,
      "オ": 1761,
      "カ": 1762,
      "ガ": 1763,
      "キ": 1764,
      "ギ": 1765,
      "ク": 1766,
      "グ": 1767,
      "ケ": 1768,
      "ゲ": 1769,
      "コ": 1770,
      "ゴ": 1771,
      "サ": 1772,
      "ザ": 1773,
      "シ": 1774,
      "ジ": 1775,
      "ス": 1776,
      "ズ": 1777,
      "セ": 1778,
      "ゼ": 1779,
      "ソ": 1780,
      "ゾ": 1781,
      "タ": 1782,
      "ダ": 1783,
      "チ": 1784,
      "ヂ": 1785,
      "ッ": 1786,
      "ツ": 1787,
      "ヅ": 1788,
      "テ": 1789,
      "デ": 1790,
      "ト": 1791,
      "ド": 1792,
      "ナ": 1793,
      "ニ": 1794,
      "ヌ": 1795,
      "ネ": 1796,
      "ノ": 1797,
      "ハ": 1798,
      "バ": 1799,
      "パ": 1800,
      "ヒ": 1801,
      "ビ": 1802,
      "ピ": 1803,
      "フ": 1804,
      "ブ": 1805,
      "プ": 1806,
      "ヘ": 1807,
      "ベ": 1808,
      "ペ": 1809,
      "ホ": 1810,
      "ボ": 1811,
      "ポ": 1812,
      "マ": 1813,
      "ミ": 1814,
      "ム": 1815,
      "メ": 1816,
      "モ": 1817,
      "ャ": 1818,
      "ヤ": 1819,
      "ュ": 1820,
      "ユ": 1821,
      "ョ": 1822,
      "ヨ": 1823,
      "ラ": 1824,
      "リ": 1825,
      "ル": 1826,
      "レ": 1827,
      "ロ": 1828,
      "ワ": 1829,
      "ン": 1830,
      "ヴ": 1831,
      "ヷ": 1832,
      "ヺ": 1833,
      "・": 1834,
      "ー": 1835,
      "㈱": 1836,
      "㊣": 1837,
      "㍿": 1838,
      "䍶": 1839,
      "䨹": 1840,
      "一": 1841,
      "丁": 1842,
      "三": 1843,
      "上": 1844,
      "下": 1845,
      "不": 1846,
      "与": 1847,
      "且": 1848,
      "世": 1849,
      "业": 1850,
      "东": 1851,
      "丢": 1852,
      "两": 1853,
      "严": 1854,
      "並": 1855,
      "个": 1856,
      "中": 1857,
      "临": 1858,
      "为": 1859,
      "主": 1860,
      "举": 1861,
      "么": 1862,
      "义": 1863,
      "之": 1864,
      "乎": 1865,
      "乐": 1866,
      "乘": 1867,
      "九": 1868,
      "也": 1869,
      "书": 1870,
      "买": 1871,
      "乾": 1872,
      "了": 1873,
      "事": 1874,
      "二": 1875,
      "于": 1876,
      "云": 1877,
      "互": 1878,
      "井": 1879,
      "亚": 1880,
      "些": 1881,
      "亞": 1882,
      "交": 1883,
      "产": 1884,
      "享": 1885,
      "京": 1886,
      "亲": 1887,
      "人": 1888,
      "什": 1889,
      "仍": 1890,
      "从": 1891,
      "他": 1892,
      "代": 1893,
      "令": 1894,
      "以": 1895,
      "们": 1896,
      "件": 1897,
      "价": 1898,
      "任": 1899,
      "份": 1900,
      "企": 1901,
      "休": 1902,
      "众": 1903,
      "优": 1904,
      "伙": 1905,
      "会": 1906,
      "传": 1907,
      "伪": 1908,
      "似": 1909,
      "但": 1910,
      "位": 1911,
      "低": 1912,
      "住": 1913,
      "佐": 1914,
      "体": 1915,
      "何": 1916,
      "作": 1917,
      "你": 1918,
      "佳": 1919,
      "使": 1920,
      "來": 1921,
      "例": 1922,
      "供": 1923,
      "依": 1924,
      "便": 1925,
      "俗": 1926,
      "保": 1927,
      "信": 1928,
      "修": 1929,
      "個": 1930,
      "倍": 1931,
      "們": 1932,
      "倒": 1933,
      "候": 1934,
      "倲": 1935,
      "值": 1936,
      "倾": 1937,
      "做": 1938,
      "停": 1939,
      "健": 1940,
      "備": 1941,
      "储": 1942,
      "像": 1943,
      "儲": 1944,
      "允": 1945,
      "元": 1946,
      "先": 1947,
      "光": 1948,
      "克": 1949,
      "免": 1950,
      "入": 1951,
      "內": 1952,
      "全": 1953,
      "八": 1954,
      "公": 1955,
      "六": 1956,
      "兰": 1957,
      "共": 1958,
      "关": 1959,
      "兵": 1960,
      "其": 1961,
      "具": 1962,
      "典": 1963,
      "内": 1964,
      "冊": 1965,
      "册": 1966,
      "再": 1967,
      "冒": 1968,
      "写": 1969,
      "农": 1970,
      "冯": 1971,
      "冲": 1972,
      "况": 1973,
      "准": 1974,
      "减": 1975,
      "几": 1976,
      "凡": 1977,
      "処": 1978,
      "出": 1979,
      "击": 1980,
      "函": 1981,
      "分": 1982,
      "切": 1983,
      "划": 1984,
      "列": 1985,
      "则": 1986,
      "创": 1987,
      "初": 1988,
      "删": 1989,
      "判": 1990,
      "別": 1991,
      "利": 1992,
      "别": 1993,
      "到": 1994,
      "制": 1995,
      "刷": 1996,
      "則": 1997,
      "前": 1998,
      "剪": 1999,
      "割": 2000,
      "創": 2001,
      "力": 2002,
      "功": 2003,
      "加": 2004,
      "务": 2005,
      "动": 2006,
      "助": 2007,
      "効": 2008,
      "動": 2009,
      "務": 2010,
      "勢": 2011,
      "勿": 2012,
      "包": 2013,
      "化": 2014,
      "匹": 2015,
      "区": 2016,
      "區": 2017,
      "十": 2018,
      "升": 2019,
      "半": 2020,
      "协": 2021,
      "单": 2022,
      "単": 2023,
      "博": 2024,
      "占": 2025,
      "卡": 2026,
      "卫": 2027,
      "即": 2028,
      "却": 2029,
      "卸": 2030,
      "历": 2031,
      "压": 2032,
      "厚": 2033,
      "原": 2034,
      "厢": 2035,
      "去": 2036,
      "叁": 2037,
      "参": 2038,
      "叉": 2039,
      "及": 2040,
      "友": 2041,
      "双": 2042,
      "发": 2043,
      "取": 2044,
      "受": 2045,
      "变": 2046,
      "口": 2047,
      "句": 2048,
      "另": 2049,
      "只": 2050,
      "叫": 2051,
      "可": 2052,
      "台": 2053,
      "史": 2054,
      "右": 2055,
      "叶": 2056,
      "号": 2057,
      "各": 2058,
      "合": 2059,
      "吊": 2060,
      "同": 2061,
      "名": 2062,
      "后": 2063,
      "向": 2064,
      "吗": 2065,
      "君": 2066,
      "吟": 2067,
      "否": 2068,
      "吧": 2069,
      "含": 2070,
      "听": 2071,
      "启": 2072,
      "吼": 2073,
      "吾": 2074,
      "告": 2075,
      "员": 2076,
      "呢": 2077,
      "味": 2078,
      "呼": 2079,
      "命": 2080,
      "和": 2081,
      "品": 2082,
      "哈": 2083,
      "响": 2084,
      "哎": 2085,
      "哒": 2086,
      "哦": 2087,
      "哪": 2088,
      "唯": 2089,
      "啊": 2090,
      "問": 2091,
      "啟": 2092,
      "啦": 2093,
      "啪": 2094,
      "啬": 2095,
      "善": 2096,
      "喜": 2097,
      "單": 2098,
      "喽": 2099,
      "嗯": 2100,
      "嘗": 2101,
      "嘤": 2102,
      "器": 2103,
      "噼": 2104,
      "嚴": 2105,
      "四": 2106,
      "回": 2107,
      "因": 2108,
      "团": 2109,
      "団": 2110,
      "困": 2111,
      "围": 2112,
      "固": 2113,
      "国": 2114,
      "图": 2115,
      "圆": 2116,
      "國": 2117,
      "圍": 2118,
      "園": 2119,
      "圖": 2120,
      "在": 2121,
      "地": 2122,
      "址": 2123,
      "均": 2124,
      "坐": 2125,
      "块": 2126,
      "坤": 2127,
      "垂": 2128,
      "型": 2129,
      "埃": 2130,
      "城": 2131,
      "域": 2132,
      "執": 2133,
      "基": 2134,
      "堆": 2135,
      "場": 2136,
      "境": 2137,
      "墙": 2138,
      "增": 2139,
      "壁": 2140,
      "壊": 2141,
      "壓": 2142,
      "士": 2143,
      "声": 2144,
      "处": 2145,
      "备": 2146,
      "変": 2147,
      "复": 2148,
      "夏": 2149,
      "外": 2150,
      "多": 2151,
      "够": 2152,
      "夠": 2153,
      "大": 2154,
      "天": 2155,
      "太": 2156,
      "失": 2157,
      "头": 2158,
      "夹": 2159,
      "夾": 2160,
      "奇": 2161,
      "奈": 2162,
      "奖": 2163,
      "女": 2164,
      "好": 2165,
      "如": 2166,
      "妇": 2167,
      "始": 2168,
      "姓": 2169,
      "姿": 2170,
      "媒": 2171,
      "子": 2172,
      "孕": 2173,
      "字": 2174,
      "存": 2175,
      "孙": 2176,
      "学": 2177,
      "孩": 2178,
      "學": 2179,
      "它": 2180,
      "安": 2181,
      "宋": 2182,
      "完": 2183,
      "官": 2184,
      "定": 2185,
      "宜": 2186,
      "宝": 2187,
      "实": 2188,
      "実": 2189,
      "客": 2190,
      "室": 2191,
      "害": 2192,
      "家": 2193,
      "容": 2194,
      "宽": 2195,
      "密": 2196,
      "富": 2197,
      "察": 2198,
      "对": 2199,
      "导": 2200,
      "対": 2201,
      "射": 2202,
      "将": 2203,
      "將": 2204,
      "尊": 2205,
      "對": 2206,
      "導": 2207,
      "小": 2208,
      "少": 2209,
      "尚": 2210,
      "尝": 2211,
      "就": 2212,
      "尺": 2213,
      "尽": 2214,
      "尾": 2215,
      "局": 2216,
      "层": 2217,
      "居": 2218,
      "屈": 2219,
      "屋": 2220,
      "屏": 2221,
      "展": 2222,
      "属": 2223,
      "層": 2224,
      "山": 2225,
      "岁": 2226,
      "岛": 2227,
      "峰": 2228,
      "川": 2229,
      "巡": 2230,
      "工": 2231,
      "左": 2232,
      "差": 2233,
      "己": 2234,
      "已": 2235,
      "市": 2236,
      "布": 2237,
      "师": 2238,
      "希": 2239,
      "带": 2240,
      "帧": 2241,
      "帮": 2242,
      "帳": 2243,
      "帶": 2244,
      "常": 2245,
      "幀": 2246,
      "幕": 2247,
      "干": 2248,
      "平": 2249,
      "年": 2250,
      "并": 2251,
      "幹": 2252,
      "幾": 2253,
      "序": 2254,
      "库": 2255,
      "应": 2256,
      "底": 2257,
      "店": 2258,
      "废": 2259,
      "度": 2260,
      "庫": 2261,
      "延": 2262,
      "建": 2263,
      "开": 2264,
      "异": 2265,
      "弃": 2266,
      "式": 2267,
      "引": 2268,
      "张": 2269,
      "張": 2270,
      "強": 2271,
      "弹": 2272,
      "强": 2273,
      "彈": 2274,
      "归": 2275,
      "当": 2276,
      "录": 2277,
      "形": 2278,
      "彩": 2279,
      "影": 2280,
      "彷": 2281,
      "往": 2282,
      "征": 2283,
      "径": 2284,
      "待": 2285,
      "很": 2286,
      "後": 2287,
      "徑": 2288,
      "得": 2289,
      "從": 2290,
      "循": 2291,
      "微": 2292,
      "徵": 2293,
      "德": 2294,
      "心": 2295,
      "必": 2296,
      "志": 2297,
      "忙": 2298,
      "応": 2299,
      "快": 2300,
      "忽": 2301,
      "态": 2302,
      "怠": 2303,
      "性": 2304,
      "总": 2305,
      "恢": 2306,
      "恭": 2307,
      "息": 2308,
      "恵": 2309,
      "悟": 2310,
      "您": 2311,
      "悬": 2312,
      "情": 2313,
      "惰": 2314,
      "想": 2315,
      "愉": 2316,
      "意": 2317,
      "態": 2318,
      "慎": 2319,
      "慕": 2320,
      "慢": 2321,
      "憶": 2322,
      "應": 2323,
      "懒": 2324,
      "懝": 2325,
      "懸": 2326,
      "戏": 2327,
      "成": 2328,
      "我": 2329,
      "或": 2330,
      "战": 2331,
      "截": 2332,
      "戲": 2333,
      "戶": 2334,
      "户": 2335,
      "戻": 2336,
      "房": 2337,
      "所": 2338,
      "手": 2339,
      "才": 2340,
      "打": 2341,
      "扣": 2342,
      "执": 2343,
      "扩": 2344,
      "扫": 2345,
      "找": 2346,
      "承": 2347,
      "把": 2348,
      "抓": 2349,
      "投": 2350,
      "抖": 2351,
      "折": 2352,
      "択": 2353,
      "报": 2354,
      "抱": 2355,
      "拉": 2356,
      "拒": 2357,
      "拟": 2358,
      "拡": 2359,
      "择": 2360,
      "拿": 2361,
      "持": 2362,
      "指": 2363,
      "按": 2364,
      "挙": 2365,
      "振": 2366,
      "捉": 2367,
      "捕": 2368,
      "换": 2369,
      "据": 2370,
      "掃": 2371,
      "掉": 2372,
      "排": 2373,
      "採": 2374,
      "探": 2375,
      "接": 2376,
      "控": 2377,
      "推": 2378,
      "掩": 2379,
      "描": 2380,
      "提": 2381,
      "插": 2382,
      "換": 2383,
      "援": 2384,
      "搖": 2385,
      "搜": 2386,
      "搭": 2387,
      "摄": 2388,
      "摸": 2389,
      "撕": 2390,
      "撤": 2391,
      "播": 2392,
      "擇": 2393,
      "操": 2394,
      "據": 2395,
      "擬": 2396,
      "擴": 2397,
      "支": 2398,
      "收": 2399,
      "改": 2400,
      "放": 2401,
      "故": 2402,
      "效": 2403,
      "敗": 2404,
      "教": 2405,
      "敬": 2406,
      "数": 2407,
      "整": 2408,
      "數": 2409,
      "文": 2410,
      "斐": 2411,
      "斗": 2412,
      "料": 2413,
      "斜": 2414,
      "斥": 2415,
      "断": 2416,
      "新": 2417,
      "斷": 2418,
      "方": 2419,
      "於": 2420,
      "旋": 2421,
      "族": 2422,
      "无": 2423,
      "日": 2424,
      "旧": 2425,
      "早": 2426,
      "时": 2427,
      "明": 2428,
      "星": 2429,
      "映": 2430,
      "春": 2431,
      "是": 2432,
      "昵": 2433,
      "显": 2434,
      "時": 2435,
      "晉": 2436,
      "晒": 2437,
      "晚": 2438,
      "普": 2439,
      "景": 2440,
      "暂": 2441,
      "暗": 2442,
      "暢": 2443,
      "暫": 2444,
      "更": 2445,
      "書": 2446,
      "曼": 2447,
      "替": 2448,
      "最": 2449,
      "會": 2450,
      "月": 2451,
      "有": 2452,
      "服": 2453,
      "望": 2454,
      "期": 2455,
      "未": 2456,
      "本": 2457,
      "机": 2458,
      "杀": 2459,
      "权": 2460,
      "李": 2461,
      "束": 2462,
      "条": 2463,
      "来": 2464,
      "杯": 2465,
      "東": 2466,
      "松": 2467,
      "板": 2468,
      "构": 2469,
      "析": 2470,
      "林": 2471,
      "果": 2472,
      "枯": 2473,
      "柄": 2474,
      "某": 2475,
      "染": 2476,
      "查": 2477,
      "标": 2478,
      "栈": 2479,
      "栏": 2480,
      "树": 2481,
      "校": 2482,
      "株": 2483,
      "样": 2484,
      "核": 2485,
      "根": 2486,
      "格": 2487,
      "框": 2488,
      "桌": 2489,
      "档": 2490,
      "條": 2491,
      "梯": 2492,
      "械": 2493,
      "检": 2494,
      "棋": 2495,
      "棕": 2496,
      "森": 2497,
      "椭": 2498,
      "楔": 2499,
      "楚": 2500,
      "業": 2501,
      "楼": 2502,
      "榴": 2503,
      "構": 2504,
      "槽": 2505,
      "樂": 2506,
      "樓": 2507,
      "標": 2508,
      "模": 2509,
      "樣": 2510,
      "橋": 2511,
      "機": 2512,
      "檔": 2513,
      "欄": 2514,
      "次": 2515,
      "欢": 2516,
      "欧": 2517,
      "款": 2518,
      "歉": 2519,
      "歡": 2520,
      "止": 2521,
      "正": 2522,
      "此": 2523,
      "步": 2524,
      "歪": 2525,
      "歷": 2526,
      "歸": 2527,
      "殊": 2528,
      "段": 2529,
      "毁": 2530,
      "毎": 2531,
      "每": 2532,
      "毒": 2533,
      "比": 2534,
      "毕": 2535,
      "毛": 2536,
      "毫": 2537,
      "民": 2538,
      "永": 2539,
      "求": 2540,
      "汉": 2541,
      "江": 2542,
      "池": 2543,
      "沉": 2544,
      "沒": 2545,
      "沖": 2546,
      "没": 2547,
      "油": 2548,
      "治": 2549,
      "法": 2550,
      "波": 2551,
      "泣": 2552,
      "注": 2553,
      "泽": 2554,
      "洲": 2555,
      "活": 2556,
      "派": 2557,
      "流": 2558,
      "浅": 2559,
      "测": 2560,
      "浏": 2561,
      "海": 2562,
      "涂": 2563,
      "消": 2564,
      "深": 2565,
      "添": 2566,
      "清": 2567,
      "減": 2568,
      "温": 2569,
      "港": 2570,
      "渲": 2571,
      "游": 2572,
      "湖": 2573,
      "源": 2574,
      "準": 2575,
      "溢": 2576,
      "溯": 2577,
      "滑": 2578,
      "滚": 2579,
      "满": 2580,
      "滤": 2581,
      "滾": 2582,
      "演": 2583,
      "漢": 2584,
      "漫": 2585,
      "漱": 2586,
      "潛": 2587,
      "潜": 2588,
      "濾": 2589,
      "瀏": 2590,
      "灣": 2591,
      "灰": 2592,
      "灵": 2593,
      "点": 2594,
      "為": 2595,
      "烁": 2596,
      "热": 2597,
      "無": 2598,
      "然": 2599,
      "照": 2600,
      "熱": 2601,
      "燕": 2602,
      "營": 2603,
      "燥": 2604,
      "爱": 2605,
      "爲": 2606,
      "父": 2607,
      "片": 2608,
      "版": 2609,
      "牌": 2610,
      "牙": 2611,
      "物": 2612,
      "特": 2613,
      "犬": 2614,
      "状": 2615,
      "狀": 2616,
      "狐": 2617,
      "独": 2618,
      "狸": 2619,
      "猫": 2620,
      "獲": 2621,
      "率": 2622,
      "王": 2623,
      "玛": 2624,
      "玩": 2625,
      "环": 2626,
      "现": 2627,
      "理": 2628,
      "環": 2629,
      "甚": 2630,
      "生": 2631,
      "產": 2632,
      "用": 2633,
      "由": 2634,
      "申": 2635,
      "电": 2636,
      "男": 2637,
      "町": 2638,
      "画": 2639,
      "畅": 2640,
      "界": 2641,
      "留": 2642,
      "畠": 2643,
      "略": 2644,
      "番": 2645,
      "異": 2646,
      "當": 2647,
      "療": 2648,
      "発": 2649,
      "登": 2650,
      "發": 2651,
      "白": 2652,
      "百": 2653,
      "的": 2654,
      "皮": 2655,
      "益": 2656,
      "监": 2657,
      "盖": 2658,
      "盘": 2659,
      "盤": 2660,
      "目": 2661,
      "直": 2662,
      "相": 2663,
      "省": 2664,
      "看": 2665,
      "真": 2666,
      "着": 2667,
      "瞄": 2668,
      "知": 2669,
      "矩": 2670,
      "短": 2671,
      "石": 2672,
      "码": 2673,
      "研": 2674,
      "础": 2675,
      "硬": 2676,
      "确": 2677,
      "碟": 2678,
      "確": 2679,
      "碼": 2680,
      "磁": 2681,
      "示": 2682,
      "社": 2683,
      "祝": 2684,
      "神": 2685,
      "禁": 2686,
      "福": 2687,
      "离": 2688,
      "种": 2689,
      "秒": 2690,
      "称": 2691,
      "移": 2692,
      "程": 2693,
      "稍": 2694,
      "種": 2695,
      "稱": 2696,
      "積": 2697,
      "究": 2698,
      "空": 2699,
      "突": 2700,
      "窗": 2701,
      "立": 2702,
      "端": 2703,
      "笑": 2704,
      "笛": 2705,
      "符": 2706,
      "第": 2707,
      "等": 2708,
      "签": 2709,
      "简": 2710,
      "算": 2711,
      "管": 2712,
      "箭": 2713,
      "箱": 2714,
      "範": 2715,
      "築": 2716,
      "簡": 2717,
      "米": 2718,
      "类": 2719,
      "粗": 2720,
      "精": 2721,
      "系": 2722,
      "紙": 2723,
      "級": 2724,
      "素": 2725,
      "索": 2726,
      "細": 2727,
      "終": 2728,
      "組": 2729,
      "結": 2730,
      "絞": 2731,
      "統": 2732,
      "線": 2733,
      "緩": 2734,
      "縮": 2735,
      "繁": 2736,
      "红": 2737,
      "级": 2738,
      "纸": 2739,
      "线": 2740,
      "组": 2741,
      "细": 2742,
      "终": 2743,
      "经": 2744,
      "绑": 2745,
      "结": 2746,
      "给": 2747,
      "络": 2748,
      "绝": 2749,
      "统": 2750,
      "继": 2751,
      "绩": 2752,
      "续": 2753,
      "维": 2754,
      "缀": 2755,
      "缓": 2756,
      "编": 2757,
      "缘": 2758,
      "缩": 2759,
      "缺": 2760,
      "网": 2761,
      "罗": 2762,
      "置": 2763,
      "羅": 2764,
      "美": 2765,
      "羣": 2766,
      "群": 2767,
      "義": 2768,
      "羽": 2769,
      "翻": 2770,
      "者": 2771,
      "而": 2772,
      "耗": 2773,
      "聊": 2774,
      "联": 2775,
      "聯": 2776,
      "聲": 2777,
      "肢": 2778,
      "肤": 2779,
      "背": 2780,
      "胞": 2781,
      "能": 2782,
      "脑": 2783,
      "腾": 2784,
      "臨": 2785,
      "自": 2786,
      "至": 2787,
      "致": 2788,
      "舟": 2789,
      "色": 2790,
      "节": 2791,
      "花": 2792,
      "苍": 2793,
      "若": 2794,
      "英": 2795,
      "苹": 2796,
      "范": 2797,
      "茶": 2798,
      "草": 2799,
      "荐": 2800,
      "荘": 2801,
      "获": 2802,
      "菄": 2803,
      "菜": 2804,
      "華": 2805,
      "著": 2806,
      "董": 2807,
      "蓋": 2808,
      "蓝": 2809,
      "蔽": 2810,
      "薄": 2811,
      "薦": 2812,
      "藏": 2813,
      "藤": 2814,
      "處": 2815,
      "虚": 2816,
      "虛": 2817,
      "號": 2818,
      "虽": 2819,
      "衆": 2820,
      "行": 2821,
      "街": 2822,
      "衝": 2823,
      "表": 2824,
      "被": 2825,
      "裂": 2826,
      "装": 2827,
      "裏": 2828,
      "補": 2829,
      "裡": 2830,
      "製": 2831,
      "西": 2832,
      "要": 2833,
      "覆": 2834,
      "見": 2835,
      "視": 2836,
      "覽": 2837,
      "见": 2838,
      "观": 2839,
      "规": 2840,
      "视": 2841,
      "览": 2842,
      "角": 2843,
      "解": 2844,
      "触": 2845,
      "觸": 2846,
      "言": 2847,
      "計": 2848,
      "訊": 2849,
      "記": 2850,
      "訪": 2851,
      "設": 2852,
      "註": 2853,
      "詢": 2854,
      "試": 2855,
      "話": 2856,
      "該": 2857,
      "詳": 2858,
      "認": 2859,
      "語": 2860,
      "說": 2861,
      "調": 2862,
      "請": 2863,
      "證": 2864,
      "譚": 2865,
      "警": 2866,
      "譯": 2867,
      "讀": 2868,
      "變": 2869,
      "计": 2870,
      "认": 2871,
      "讨": 2872,
      "议": 2873,
      "讯": 2874,
      "记": 2875,
      "许": 2876,
      "论": 2877,
      "设": 2878,
      "访": 2879,
      "证": 2880,
      "识": 2881,
      "词": 2882,
      "译": 2883,
      "试": 2884,
      "话": 2885,
      "询": 2886,
      "该": 2887,
      "详": 2888,
      "语": 2889,
      "误": 2890,
      "说": 2891,
      "请": 2892,
      "诺": 2893,
      "读": 2894,
      "谁": 2895,
      "调": 2896,
      "象": 2897,
      "費": 2898,
      "資": 2899,
      "質": 2900,
      "贝": 2901,
      "负": 2902,
      "败": 2903,
      "账": 2904,
      "质": 2905,
      "贴": 2906,
      "费": 2907,
      "资": 2908,
      "赖": 2909,
      "赛": 2910,
      "起": 2911,
      "超": 2912,
      "足": 2913,
      "距": 2914,
      "跟": 2915,
      "路": 2916,
      "跳": 2917,
      "踢": 2918,
      "踪": 2919,
      "身": 2920,
      "車": 2921,
      "軸": 2922,
      "較": 2923,
      "載": 2924,
      "輕": 2925,
      "輛": 2926,
      "輩": 2927,
      "輪": 2928,
      "輯": 2929,
      "輸": 2930,
      "轉": 2931,
      "车": 2932,
      "转": 2933,
      "轮": 2934,
      "软": 2935,
      "载": 2936,
      "较": 2937,
      "辑": 2938,
      "输": 2939,
      "辨": 2940,
      "边": 2941,
      "込": 2942,
      "达": 2943,
      "过": 2944,
      "迎": 2945,
      "运": 2946,
      "近": 2947,
      "返": 2948,
      "还": 2949,
      "这": 2950,
      "进": 2951,
      "远": 2952,
      "连": 2953,
      "迟": 2954,
      "迫": 2955,
      "迭": 2956,
      "述": 2957,
      "追": 2958,
      "退": 2959,
      "送": 2960,
      "适": 2961,
      "逆": 2962,
      "选": 2963,
      "透": 2964,
      "逐": 2965,
      "递": 2966,
      "這": 2967,
      "通": 2968,
      "速": 2969,
      "造": 2970,
      "連": 2971,
      "週": 2972,
      "進": 2973,
      "逻": 2974,
      "遇": 2975,
      "遊": 2976,
      "運": 2977,
      "遍": 2978,
      "過": 2979,
      "道": 2980,
      "遠": 2981,
      "適": 2982,
      "選": 2983,
      "避": 2984,
      "邀": 2985,
      "那": 2986,
      "邮": 2987,
      "邻": 2988,
      "部": 2989,
      "都": 2990,
      "配": 2991,
      "醸": 2992,
      "采": 2993,
      "释": 2994,
      "里": 2995,
      "重": 2996,
      "野": 2997,
      "量": 2998,
      "金": 2999,
      "針": 3000,
      "鈕": 3001,
      "鉴": 3002,
      "銀": 3003,
      "銷": 3004,
      "鋒": 3005,
      "錄": 3006,
      "鍵": 3007,
      "鏡": 3008,
      "鐵": 3009,
      "鑠": 3010,
      "针": 3011,
      "钥": 3012,
      "钮": 3013,
      "铁": 3014,
      "链": 3015,
      "销": 3016,
      "锁": 3017,
      "错": 3018,
      "键": 3019,
      "长": 3020,
      "門": 3021,
      "閉": 3022,
      "開": 3023,
      "間": 3024,
      "關": 3025,
      "闪": 3026,
      "闭": 3027,
      "问": 3028,
      "闲": 3029,
      "间": 3030,
      "闵": 3031,
      "队": 3032,
      "防": 3033,
      "阵": 3034,
      "阶": 3035,
      "陆": 3036,
      "陌": 3037,
      "降": 3038,
      "限": 3039,
      "除": 3040,
      "险": 3041,
      "階": 3042,
      "隐": 3043,
      "隔": 3044,
      "際": 3045,
      "障": 3046,
      "隠": 3047,
      "隱": 3048,
      "雅": 3049,
      "集": 3050,
      "離": 3051,
      "難": 3052,
      "雲": 3053,
      "零": 3054,
      "需": 3055,
      "霄": 3056,
      "青": 3057,
      "静": 3058,
      "靜": 3059,
      "非": 3060,
      "靠": 3061,
      "面": 3062,
      "音": 3063,
      "響": 3064,
      "頁": 3065,
      "項": 3066,
      "須": 3067,
      "預": 3068,
      "領": 3069,
      "頭": 3070,
      "題": 3071,
      "額": 3072,
      "類": 3073,
      "顯": 3074,
      "页": 3075,
      "顶": 3076,
      "项": 3077,
      "顺": 3078,
      "须": 3079,
      "顿": 3080,
      "预": 3081,
      "频": 3082,
      "题": 3083,
      "颜": 3084,
      "额": 3085,
      "飛": 3086,
      "飞": 3087,
      "食": 3088,
      "首": 3089,
      "香": 3090,
      "馨": 3091,
      "驅": 3092,
      "驱": 3093,
      "验": 3094,
      "骑": 3095,
      "體": 3096,
      "高": 3097,
      "髮": 3098,
      "鬼": 3099,
      "鱼": 3100,
      "鶇": 3101,
      "鷹": 3102,
      "鸦": 3103,
      "麼": 3104,
      "麽": 3105,
      "黄": 3106,
      "黑": 3107,
      "默": 3108,
      "點": 3109,
      "鼠": 3110,
      "龙": 3111,
      "가": 3112,
      "각": 3113,
      "간": 3114,
      "감": 3115,
      "갔": 3116,
      "개": 3117,
      "거": 3118,
      "걸": 3119,
      "것": 3120,
      "게": 3121,
      "경": 3122,
      "계": 3123,
      "고": 3124,
      "곡": 3125,
      "과": 3126,
      "관": 3127,
      "구": 3128,
      "국": 3129,
      "그": 3130,
      "극": 3131,
      "기": 3132,
      "길": 3133,
      "까": 3134,
      "꺼": 3135,
      "께": 3136,
      "끄": 3137,
      "끔": 3138,
      "나": 3139,
      "내": 3140,
      "낸": 3141,
      "냅": 3142,
      "넣": 3143,
      "넷": 3144,
      "녕": 3145,
      "노": 3146,
      "놈": 3147,
      "놓": 3148,
      "눌": 3149,
      "뉴": 3150,
      "는": 3151,
      "능": 3152,
      "니": 3153,
      "다": 3154,
      "단": 3155,
      "대": 3156,
      "더": 3157,
      "덮": 3158,
      "도": 3159,
      "됐": 3160,
      "되": 3161,
      "될": 3162,
      "됩": 3163,
      "뒷": 3164,
      "드": 3165,
      "든": 3166,
      "들": 3167,
      "등": 3168,
      "디": 3169,
      "때": 3170,
      "또": 3171,
      "라": 3172,
      "란": 3173,
      "람": 3174,
      "래": 3175,
      "러": 3176,
      "레": 3177,
      "렉": 3178,
      "려": 3179,
      "력": 3180,
      "렸": 3181,
      "령": 3182,
      "로": 3183,
      "료": 3184,
      "륨": 3185,
      "르": 3186,
      "를": 3187,
      "름": 3188,
      "리": 3189,
      "린": 3190,
      "마": 3191,
      "만": 3192,
      "메": 3193,
      "며": 3194,
      "면": 3195,
      "모": 3196,
      "묵": 3197,
      "미": 3198,
      "및": 3199,
      "방": 3200,
      "백": 3201,
      "버": 3202,
      "법": 3203,
      "보": 3204,
      "볼": 3205,
      "분": 3206,
      "불": 3207,
      "빌": 3208,
      "빨": 3209,
      "뿐": 3210,
      "사": 3211,
      "산": 3212,
      "살": 3213,
      "상": 3214,
      "색": 3215,
      "샷": 3216,
      "서": 3217,
      "석": 3218,
      "선": 3219,
      "설": 3220,
      "섬": 3221,
      "성": 3222,
      "세": 3223,
      "션": 3224,
      "소": 3225,
      "속": 3226,
      "수": 3227,
      "숨": 3228,
      "쉐": 3229,
      "스": 3230,
      "슬": 3231,
      "습": 3232,
      "승": 3233,
      "시": 3234,
      "식": 3235,
      "신": 3236,
      "실": 3237,
      "십": 3238,
      "씌": 3239,
      "아": 3240,
      "악": 3241,
      "안": 3242,
      "어": 3243,
      "얼": 3244,
      "에": 3245,
      "여": 3246,
      "역": 3247,
      "영": 3248,
      "오": 3249,
      "온": 3250,
      "와": 3251,
      "완": 3252,
      "요": 3253,
      "용": 3254,
      "우": 3255,
      "웁": 3256,
      "워": 3257,
      "원": 3258,
      "위": 3259,
      "으": 3260,
      "은": 3261,
      "을": 3262,
      "음": 3263,
      "의": 3264,
      "이": 3265,
      "인": 3266,
      "일": 3267,
      "임": 3268,
      "입": 3269,
      "있": 3270,
      "자": 3271,
      "작": 3272,
      "장": 3273,
      "적": 3274,
      "전": 3275,
      "정": 3276,
      "제": 3277,
      "젠": 3278,
      "조": 3279,
      "좋": 3280,
      "줄": 3281,
      "중": 3282,
      "증": 3283,
      "지": 3284,
      "진": 3285,
      "집": 3286,
      "차": 3287,
      "창": 3288,
      "천": 3289,
      "철": 3290,
      "체": 3291,
      "초": 3292,
      "촬": 3293,
      "추": 3294,
      "축": 3295,
      "츠": 3296,
      "치": 3297,
      "캅": 3298,
      "컨": 3299,
      "켜": 3300,
      "크": 3301,
      "클": 3302,
      "키": 3303,
      "탐": 3304,
      "태": 3305,
      "택": 3306,
      "텐": 3307,
      "토": 3308,
      "통": 3309,
      "트": 3310,
      "튼": 3311,
      "틱": 3312,
      "판": 3313,
      "패": 3314,
      "퐀": 3315,
      "표": 3316,
      "프": 3317,
      "플": 3318,
      "하": 3319,
      "학": 3320,
      "한": 3321,
      "할": 3322,
      "함": 3323,
      "합": 3324,
      "핫": 3325,
      "해": 3326,
      "했": 3327,
      "행": 3328,
      "향": 3329,
      "혁": 3330,
      "협": 3331,
      "호": 3332,
      "화": 3333,
      "확": 3334,
      "환": 3335,
      "활": 3336,
      "후": 3337,
      "퟿": 3338,
      "": 3339,
      "ﬀ": 3340,
      "ﬁ": 3341,
      "﹐": 3342,
      "﹑": 3343,
      "﹒": 3344,
      "ﹷ": 3345,
      "ﺍ": 3346,
      "ﺒ": 3347,
      "ﺔ": 3348,
      "ﺘ": 3349,
      "ﺪ": 3350,
      "ﺭ": 3351,
      "ﺳ": 3352,
      "ﻜ": 3353,
      "ﻟ": 3354,
      "ﻡ": 3355,
      "ﻣ": 3356,
      "ﻤ": 3357,
      "ﻦ": 3358,
      "ﻨ": 3359,
      "ﻳ": 3360,
      "ﻴ": 3361,
      "ﻹ": 3362,
      "ﻼ": 3363,
      "﻿": 3364,
      "！": 3365,
      "＂": 3366,
      "＄": 3367,
      "（": 3368,
      "）": 3369,
      "＊": 3370,
      "，": 3371,
      "－": 3372,
      "．": 3373,
      "／": 3374,
      "０": 3375,
      "１": 3376,
      "２": 3377,
      "３": 3378,
      "４": 3379,
      "５": 3380,
      "６": 3381,
      "７": 3382,
      "８": 3383,
      "９": 3384,
      "：": 3385,
      "；": 3386,
      "＜": 3387,
      "＞": 3388,
      "？": 3389,
      "Ａ": 3390,
      "Ｂ": 3391,
      "Ｃ": 3392,
      "Ｄ": 3393,
      "Ｅ": 3394,
      "Ｆ": 3395,
      "Ｇ": 3396,
      "Ｈ": 3397,
      "Ｉ": 3398,
      "Ｊ": 3399,
      "Ｋ": 3400,
      "Ｌ": 3401,
      "Ｍ": 3402,
      "Ｎ": 3403,
      "Ｏ": 3404,
      "Ｐ": 3405,
      "Ｑ": 3406,
      "Ｒ": 3407,
      "Ｓ": 3408,
      "Ｔ": 3409,
      "Ｕ": 3410,
      "Ｖ": 3411,
      "［": 3412,
      "＼": 3413,
      "］": 3414,
      "＿": 3415,
      "｀": 3416,
      "｜": 3417,
      "～": 3418,
      "｡": 3419,
      "｢": 3420,
      "｣": 3421,
      "･": 3422,
      "ｰ": 3423,
      "ｱ": 3424,
      "ｲ": 3425,
      "ｳ": 3426,
      "ｴ": 3427,
      "ｵ": 3428,
      "ｸ": 3429,
      "ﾉ": 3430,
      "ﾙ": 3431,
      "ﾞ": 3432,
      "�": 3433,
      "𐌰": 3434,
      "𐌱": 3435,
      "𐌲": 3436,
      "𐌳": 3437,
      "𐌴": 3438,
      "𐌵": 3439,
      "𐌶": 3440,
      "𐌷": 3441,
      "𐐷": 3442,
      "𝄞": 3443,
      "🆕": 3444,
      "🆗": 3445,
      "🌌": 3446,
      "🌍": 3447,
      "🌮": 3448,
      "🍆": 3449,
      "🍇": 3450,
      "🍉": 3451,
      "🍣": 3452,
      "🍨": 3453,
      "🍪": 3454,
      "🍬": 3455,
      "🍯": 3456,
      "🍱": 3457,
      "🍺": 3458,
      "🍼": 3459,
      "🍿": 3460,
      "🎉": 3461,
      "🎍": 3462,
      "🎠": 3463,
      "🎢": 3464,
      "🎱": 3465,
      "🏁": 3466,
      "🏎": 3467,
      "🏛": 3468,
      "🏟": 3469,
      "🏮": 3470,
      "🐇": 3471,
      "🐊": 3472,
      "🐌": 3473,
      "🐚": 3474,
      "🐱": 3475,
      "🐻": 3476,
      "👇": 3477,
      "👉": 3478,
      "👋": 3479,
      "👌": 3480,
      "👍": 3481,
      "👎": 3482,
      "👐": 3483,
      "💣": 3484,
      "💧": 3485,
      "💩": 3486,
      "💭": 3487,
      "📗": 3488,
      "📘": 3489,
      "📜": 3490,
      "📣": 3491,
      "📦": 3492,
      "📶": 3493,
      "📻": 3494,
      "🔁": 3495,
      "🔂": 3496,
      "🔏": 3497,
      "🔐": 3498,
      "🔑": 3499,
      "🔒": 3500,
      "🔓": 3501,
      "🔗": 3502,
      "🔘": 3503,
      "🔚": 3504,
      "🔜": 3505,
      "🔠": 3506,
      "🔡": 3507,
      "🔢": 3508,
      "🔣": 3509,
      "🔤": 3510,
      "🔲": 3511,
      "🔶": 3512,
      "🔸": 3513,
      "🔺": 3514,
      "🕊": 3515,
      "🕐": 3516,
      "🕑": 3517,
      "🕒": 3518,
      "🕓": 3519,
      "🕔": 3520,
      "🕕": 3521,
      "🕖": 3522,
      "🕗": 3523,
      "🕘": 3524,
      "🕙": 3525,
      "🕚": 3526,
      "🕛": 3527,
      "🖍": 3528,
      "🗸": 3529,
      "🗺": 3530,
      "😀": 3531,
      "🙅": 3532,
      "🚧": 3533,
      "🚨": 3534,
      "🛢": 3535,
      "🤔": 3536,
      "🤙": 3537,
      "🤛": 3538,
      "🤜": 3539,
      "🤝": 3540,
      "🤡": 3541,
      "🤯": 3542,
      "🤷": 3543,
      "🥡": 3544,
      "🥯": 3545,
      "🧠": 3546,
      "🧲": 3547,
      "𠀀": 3548,
      "𠍀": 3549,
      "𢘐": 3550,
      "𤭢": 3551,
      "𩜍": 3552,
      "ÄÄ": 3553,
      "ÄÄÄÄ": 3554,
      "ÄÄÄÄÄÄÄÄ": 3555,
      "re": 3556,
      "in": 3557,
      "st": 3558,
      "er": 3559,
      "at": 3560,
      "on": 3561,
      "se": 3562,
      "le": 3563,
      "tÄ": 3564,
      "ar": 3565,
      "de": 3566,
      "al": 3567,
      "ifÄ": 3568,
      "ÄÄÄÄÄÄÄÄÄÄÄÄÄÄÄÄ": 3569,
      "en": 3570,
      "ur": 3571,
      "t_": 3572,
      "me": 3573,
      "ret": 3574,
      "ch": 3575,
      "si": 3576,
      "Ä0": 3577,
      "te": 3578,
      "tr": 3579,
      "urn": 3580,
      "an": 3581,
      "str": 3582,
      "lo": 3583,
      "ÄÄÄÄÄÄ": 3584,
      "con": 3585,
      "ge": 3586,
      "id": 3587,
      "ti": 3588,
      "un": 3589,
      "ad": 3590,
      "co": 3591,
      "el": 3592,
      "returnÄ": 3593,
      "ck": 3594,
      "sÄ": 3595,
      "mp": 3596,
      "eÄ": 3597,
      "ro": 3598,
      "e_": 3599,
      "s_": 3600,
      "it": 3601,
      "ame": 3602,
      "ÄÄÄÄÄÄÄÄÄÄÄÄ": 3603,
      "ne": 3604,
      "ing": 3605,
      "fi": 3606,
      "bu": 3607,
      "_p": 3608,
      "LL": 3609,
      "th": 3610,
      "to": 3611,
      "dÄ": 3612,
      "ct": 3613,
      "la": 3614,
      "NU": 3615,
      "intÄ": 3616,
      "Äp": 3617,
      "ma": 3618,
      "siz": 3619,
      "seÄ": 3620,
      "li": 3621,
      "ca": 3622,
      "stÄ": 3623,
      "ata": 3624,
      "NULL": 3625,
      "ue": 3626,
      "T_": 3627,
      "m_": 3628,
      "d_": 3629,
      "ce": 3630,
      "ER": 3631,
      "len": 3632,
      "val": 3633,
      "yp": 3634,
      "ff": 3635,
      "Ä1": 3636,
      "ut": 3637,
      "ol": 3638,
      "g_": 3639,
      "E_": 3640,
      "ri": 3641,
      "Äi": 3642,
      "stat": 3643,
      "IN": 3644,
      "tion": 3645,
      "ode": 3646,
      "op": 3647,
      "err": 3648,
      "data": 3649,
      "di": 3650,
      "ÄNULL": 3651,
      "ul": 3652,
      "ss": 3653,
      "et": 3654,
      "constÄ": 3655,
      "ctÄ": 3656,
      "sh": 3657,
      "rea": 3658,
      "In": 3659,
      "sp": 3660,
      "fo": 3661,
      "name": 3662,
      "size": 3663,
      "ex": 3664,
      "ble": 3665,
      "um": 3666,
      "stru": 3667,
      "c_": 3668,
      "RE": 3669,
      "ra": 3670,
      "ta": 3671,
      "Äf": 3672,
      "Äs": 3673,
      "Äc": 3674,
      "_S": 3675,
      "up": 3676,
      "structÄ": 3677,
      "ent": 3678,
      "ÄÄÄÄifÄ": 3679,
      "er_": 3680,
      "ÄÄÄ": 3681,
      "y_": 3682,
      "bj": 3683,
      "il": 3684,
      "charÄ": 3685,
      "Re": 3686,
      "cÄ": 3687,
      "set": 3688,
      "st_": 3689,
      "res": 3690,
      "00": 3691,
      "ap": 3692,
      "typ": 3693,
      "caseÄ": 3694,
      "vo": 3695,
      "\\n": 3696,
      "buf": 3697,
      "l_": 3698,
      "Äb": 3699,
      "end": 3700,
      "AL": 3701,
      "ON": 3702,
      "ve": 3703,
      "Än": 3704,
      "OR": 3705,
      "tex": 3706,
      "ate": 3707,
      "dev": 3708,
      "ile": 3709,
      "yÄ": 3710,
      "file": 3711,
      "get": 3712,
      "arg": 3713,
      "ack": 3714,
      "is": 3715,
      "ac": 3716,
      "lock": 3717,
      "elseÄ": 3718,
      "_C": 3719,
      "reak": 3720,
      "32": 3721,
      "erÄ": 3722,
      "bo": 3723,
      "AT": 3724,
      "EN": 3725,
      "\\n\"": 3726,
      "get_": 3727,
      "TR": 3728,
      "Äm": 3729,
      "info": 3730,
      "x_": 3731,
      "ke": 3732,
      "of": 3733,
      "sig": 3734,
      "pr": 3735,
      "p_": 3736,
      "forÄ": 3737,
      "no": 3738,
      "AR": 3739,
      "ÄÄÄÄÄÄÄÄÄÄÄÄÄÄÄÄÄÄÄÄÄÄÄÄÄÄÄÄÄÄÄÄ": 3740,
      "ren": 3741,
      "out": 3742,
      "us": 3743,
      "G_": 3744,
      "lin": 3745,
      "xÄ": 3746,
      "error": 3747,
      "_f": 3748,
      "read": 3749,
      "ati": 3750,
      "ver": 3751,
      "he": 3752,
      "age": 3753,
      "S_": 3754,
      "po": 3755,
      "ter": 3756,
      "ig": 3757,
      "add": 3758,
      "bje": 3759,
      "ed": 3760,
      "mo": 3761,
      "sc": 3762,
      "SE": 3763,
      "_tÄ": 3764,
      "def": 3765,
      "DE": 3766,
      "_t": 3767,
      "Äg": 3768,
      "string": 3769,
      "ms": 3770,
      "ath": 3771,
      "Get": 3772,
      "ree": 3773,
      "ction": 3774,
      "St": 3775,
      "MA": 3776,
      "std": 3777,
      "ÄÄifÄ": 3778,
      "intf": 3779,
      "D_": 3780,
      "_c": 3781,
      "Ä0x": 3782,
      "ÄS": 3783,
      "iÄ": 3784,
      "ÄÄÄÄreturnÄ": 3785,
      "ation": 3786,
      "loc": 3787,
      "Con": 3788,
      "lag": 3789,
      "LO": 3790,
      "pÄ": 3791,
      "buff": 3792,
      "vi": 3793,
      "%s": 3794,
      "coun": 3795,
      "k_": 3796,
      "Str": 3797,
      "ha": 3798,
      "ÄÄÄÄÄÄÄÄÄÄÄÄÄÄÄÄÄÄÄÄÄÄÄÄ": 3799,
      "De": 3800,
      "LE": 3801,
      "pu": 3802,
      "b_": 3803,
      "ult": 3804,
      "toÄ": 3805,
      "iz": 3806,
      "AS": 3807,
      "value": 3808,
      "ist": 3809,
      "voidÄ": 3810,
      "Co": 3811,
      "Ä2": 3812,
      "signe": 3813,
      "TE": 3814,
      "ser": 3815,
      "type": 3816,
      "Äw": 3817,
      "ic": 3818,
      "uint": 3819,
      "col": 3820,
      "ERR": 3821,
      "able": 3822,
      "ÄÄÄÄÄÄÄÄifÄ": 3823,
      "Äd": 3824,
      "ptr": 3825,
      "unsigne": 3826,
      "set_": 3827,
      "list": 3828,
      "ctor": 3829,
      "code": 3830,
      "ÄelseÄ": 3831,
      "Ät": 3832,
      "_P": 3833,
      ":Ä": 3834,
      "sion": 3835,
      "pro": 3836,
      "cur": 3837,
      "che": 3838,
      "unsignedÄ": 3839,
      "qu": 3840,
      "ase": 3841,
      "riv": 3842,
      "inde": 3843,
      "ÄÄÄÄÄÄÄÄÄÄ": 3844,
      "__": 3845,
      "EC": 3846,
      "\"Ä": 3847,
      "ht": 3848,
      "so": 3849,
      "Är": 3850,
      "L_": 3851,
      "key": 3852,
      "ST": 3853,
      "sk": 3854,
      "ev": 3855,
      "text": 3856,
      "ÄG": 3857,
      "par": 3858,
      "AC": 3859,
      "ÄF": 3860,
      "pa": 3861,
      "mat": 3862,
      "lu": 3863,
      "mÄ": 3864,
      "ÄC": 3865,
      "P_": 3866,
      "gth": 3867,
      "ID": 3868,
      "_b": 3869,
      "au": 3870,
      "node": 3871,
      "ÄÄÄÄÄ": 3872,
      "mm": 3873,
      "num": 3874,
      "rite": 3875,
      "ec": 3876,
      "ip": 3877,
      "nex": 3878,
      "rc": 3879,
      "TI": 3880,
      "size_": 3881,
      "mem": 3882,
      "ÄP": 3883,
      "gÄ": 3884,
      "star": 3885,
      "stati": 3886,
      "Äre": 3887,
      "off": 3888,
      "64": 3889,
      "ÄconstÄ": 3890,
      "alse": 3891,
      "String": 3892,
      "AN": 3893,
      "Typ": 3894,
      "dow": 3895,
      "que": 3896,
      "yte": 3897,
      "Lo": 3898,
      "all": 3899,
      "su": 3900,
      "rr": 3901,
      "ME": 3902,
      "go": 3903,
      "ctx": 3904,
      "ÄintÄ": 3905,
      "Äa": 3906,
      "ÄiÄ": 3907,
      "ort": 3908,
      "En": 3909,
      "Name": 3910,
      "lenÄ": 3911,
      "BU": 3912,
      "Äsizeof": 3913,
      "sy": 3914,
      "addr": 3915,
      "put": 3916,
      "am": 3917,
      "comp": 3918,
      "i_": 3919,
      "es": 3920,
      "Val": 3921,
      "entr": 3922,
      "wh": 3923,
      "RO": 3924,
      "ÄÄÄÄÄÄÄ": 3925,
      "ew": 3926,
      "K_": 3927,
      "Data": 3928,
      "ref": 3929,
      "M_": 3930,
      "1Ä": 3931,
      "obje": 3932,
      "TY": 3933,
      "lf": 3934,
      "UN": 3935,
      "ord": 3936,
      "FI": 3937,
      "io": 3938,
      "EX": 3939,
      "ext": 3940,
      "returnÄ0": 3941,
      "ÄÄÄÄÄÄÄÄÄÄÄÄÄÄÄÄÄÄÄÄ": 3942,
      "ou": 3943,
      "lay": 3944,
      "Ex": 3945,
      "Po": 3946,
      "ert": 3947,
      "cp": 3948,
      "in_": 3949,
      "state": 3950,
      "al_": 3951,
      "C_": 3952,
      "row": 3953,
      "mode": 3954,
      "Äh": 3955,
      "length": 3956,
      "buffer": 3957,
      "it_": 3958,
      "count": 3959,
      "reg": 3960,
      "typeÄ": 3961,
      "indow": 3962,
      "staticÄ": 3963,
      "v_": 3964,
      "a_": 3965,
      "ÄÄÄÄÄÄÄÄreturnÄ": 3966,
      "inter": 3967,
      "UE": 3968,
      "ileÄ": 3969,
      "Set": 3970,
      "SI": 3971,
      "flag": 3972,
      "16": 3973,
      "DI": 3974,
      "rent": 3975,
      "map": 3976,
      "ct_": 3977,
      "ir": 3978,
      "sizeÄ": 3979,
      "wid": 3980,
      "To": 3981,
      "ÄM": 3982,
      "tem": 3983,
      "table": 3984,
      "AD": 3985,
      "Bu": 3986,
      "ange": 3987,
      "Siz": 3988,
      "write": 3989,
      "head": 3990,
      "lon": 3991,
      "ERROR": 3992,
      "NO": 3993,
      "Äv": 3994,
      "ure": 3995,
      "rror": 3996,
      "priv": 3997,
      "fa": 3998,
      "Ä_": 3999,
      "sa": 4000,
      "Pro": 4001,
      "Äcon": 4002,
      "ho": 4003,
      "rame": 4004,
      "FF": 4005,
      "ix": 4006,
      "ator": 4007,
      "ST_": 4008,
      "Ästr": 4009,
      "Äin": 4010,
      "iter": 4011,
      "Obje": 4012,
      "line": 4013,
      "nÄ": 4014,
      "IT": 4015,
      "em": 4016,
      "ild": 4017,
      "sw": 4018,
      "mage": 4019,
      "self": 4020,
      "size_tÄ": 4021,
      "valu": 4022,
      "retÄ": 4023,
      "idÄ": 4024,
      "alloc": 4025,
      "ot": 4026,
      "dir": 4027,
      "Äx": 4028,
      "chÄ": 4029,
      "ate_": 4030,
      "md": 4031,
      "du": 4032,
      "ass": 4033,
      "Äj": 4034,
      "ent_": 4035,
      "lÄ": 4036,
      "F_": 4037,
      "File": 4038,
      "gin": 4039,
      "strea": 4040,
      "ÄÄreturnÄ": 4041,
      "pre": 4042,
      "TYP": 4043,
      "obj": 4044,
      "Type": 4045,
      "index": 4046,
      "loat": 4047,
      "path": 4048,
      "Ar": 4049,
      "ingÄ": 4050,
      ".0": 4051,
      "%d": 4052,
      "list_": 4053,
      "ow": 4054,
      "Op": 4055,
      "ssage": 4056,
      "dd": 4057,
      "f_": 4058,
      "andle": 4059,
      "result": 4060,
      "tmp": 4061,
      "2Ä": 4062,
      "is_": 4063,
      "ALSE": 4064,
      "INT": 4065,
      "Ch": 4066,
      "Info": 4067,
      "dou": 4068,
      "n_": 4069,
      "Ä0Ä": 4070,
      "ment": 4071,
      "CH": 4072,
      "ind": 4073,
      "to_": 4074,
      "ag": 4075,
      "SER": 4076,
      "endif": 4077,
      "GE": 4078,
      "attr": 4079,
      "back": 4080,
      "X_": 4081,
      "ÄI": 4082,
      "fig": 4083,
      "ÄÄÄÄÄÄifÄ": 4084,
      "ok": 4085,
      "LI": 4086,
      "sen": 4087,
      "as": 4088,
      "be": 4089,
      "hash": 4090,
      "whileÄ": 4091,
      "O_": 4092,
      "Par": 4093,
      ",Ä": 4094,
      "cmp": 4095,
      "0Ä": 4096,
      "next": 4097,
      "VAL": 4098,
      "im": 4099,
      "OP": 4100,
      "MP": 4101,
      "pl": 4102,
      "Node": 4103,
      "_ptr": 4104,
      "use": 4105,
      "Error": 4106,
      "load": 4107,
      "Äl": 4108,
      "LA": 4109,
      "Se": 4110,
      "ans": 4111,
      "comm": 4112,
      "check": 4113,
      "start": 4114,
      "ray": 4115,
      "ces": 4116,
      "CE": 4117,
      "ÄT": 4118,
      "max": 4119,
      "ÄÄÄÄintÄ": 4120,
      "TRUE": 4121,
      "pt": 4122,
      "defa": 4123,
      "ull": 4124,
      "dr": 4125,
      "Äe": 4126,
      "ab": 4127,
      "List": 4128,
      "pp": 4129,
      "ui": 4130,
      "ateÄ": 4131,
      "ÄÄÄÄcaseÄ": 4132,
      "fd": 4133,
      "ve_": 4134,
      "le_": 4135,
      "base": 4136,
      "temp": 4137,
      "SS": 4138,
      "und": 4139,
      "var": 4140,
      "roup": 4141,
      "Un": 4142,
      "pe": 4143,
      "CO": 4144,
      "byte": 4145,
      "TH": 4146,
      "gotoÄ": 4147,
      "dataÄ": 4148,
      "Ä4": 4149,
      "ight": 4150,
      "UR": 4151,
      "entÄ": 4152,
      "option": 4153,
      "Size": 4154,
      "nel": 4155,
      "_re": 4156,
      "db": 4157,
      "mu": 4158,
      "setÄ": 4159,
      "ted": 4160,
      "Value": 4161,
      "block": 4162,
      "Ä3": 4163,
      "ber": 4164,
      "wor": 4165,
      "Äk": 4166,
      "constÄcharÄ": 4167,
      "TÄ": 4168,
      "tk": 4169,
      "AP": 4170,
      "sn": 4171,
      "ty": 4172,
      "vÄ": 4173,
      "min": 4174,
      "_tmp": 4175,
      "Äg_": 4176,
      "cli": 4177,
      "fre": 4178,
      "cont": 4179,
      "ce_": 4180,
      "ail": 4181,
      "ÄÄÄÄÄÄÄÄÄ": 4182,
      "ultÄ": 4183,
      "nameÄ": 4184,
      "read_": 4185,
      "Add": 4186,
      "LE_": 4187,
      "elseÄifÄ": 4188,
      "gl": 4189,
      "2_": 4190,
      "ken": 4191,
      "sub": 4192,
      "fir": 4193,
      "cr": 4194,
      "ÄD": 4195,
      "nt": 4196,
      "cre": 4197,
      "ÄB": 4198,
      "msg": 4199,
      "ASSER": 4200,
      "raw": 4201,
      "Änew": 4202,
      "_in": 4203,
      "app": 4204,
      "mb": 4205,
      "uint32": 4206,
      "_F": 4207,
      "width": 4208,
      "ph": 4209,
      "color": 4210,
      "conne": 4211,
      "usÄ": 4212,
      "OK": 4213,
      "Buff": 4214,
      "ÄÄÄÄÄÄÄÄÄÄÄÄifÄ": 4215,
      "_po": 4216,
      "um_": 4217,
      "Me": 4218,
      "Ma": 4219,
      "ZE": 4220,
      "stan": 4221,
      "entry": 4222,
      "rÄ": 4223,
      "swit": 4224,
      "ine": 4225,
      "TYPE_": 4226,
      "_ST": 4227,
      "chan": 4228,
      "ÄÄÄÄÄÄÄÄÄÄÄÄÄÄ": 4229,
      "\\\"": 4230,
      "Ke": 4231,
      "_pro": 4232,
      "MO": 4233,
      "low": 4234,
      "fil": 4235,
      "are": 4236,
      "lete": 4237,
      "Col": 4238,
      "lename": 4239,
      "args": 4240,
      "ER_": 4241,
      "1_": 4242,
      "Äfalse": 4243,
      "ts": 4244,
      "valÄ": 4245,
      "Ätrue": 4246,
      "ÄN": 4247,
      "ps": 4248,
      "Y_": 4249,
      "'Ä": 4250,
      "10": 4251,
      "Inde": 4252,
      "ÄH": 4253,
      "ÄreturnÄ": 4254,
      "r_": 4255,
      "file_": 4256,
      "old": 4257,
      "ub": 4258,
      "fÄ": 4259,
      "lose": 4260,
      "eld": 4261,
      "offset": 4262,
      "Bo": 4263,
      "sock": 4264,
      "mt": 4265,
      "atch": 4266,
      "ay": 4267,
      "bit": 4268,
      "0000": 4269,
      "on_": 4270,
      "ime": 4271,
      "Äde": 4272,
      "open": 4273,
      "one": 4274,
      "message": 4275,
      "rom": 4276,
      "_par": 4277,
      "Di": 4278,
      "12": 4279,
      "itÄ": 4280,
      "ING": 4281,
      "US": 4282,
      "cess": 4283,
      "A_": 4284,
      "ÄÄÄÄforÄ": 4285,
      "B_": 4286,
      "KE": 4287,
      "put_": 4288,
      "int_": 4289,
      "ÄÄÄÄif": 4290,
      "view": 4291,
      "sor": 4292,
      "Id": 4293,
      "ith": 4294,
      "Äu": 4295,
      "sto": 4296,
      "AI": 4297,
      "bÄ": 4298,
      "ÄE": 4299,
      "Äm_": 4300,
      "unc": 4301,
      "pos": 4302,
      "o_": 4303,
      "ÄÄintÄ": 4304,
      "window": 4305,
      "format": 4306,
      "status": 4307,
      "Coun": 4308,
      "Len": 4309,
      "AB": 4310,
      "Object": 4311,
      "Ädata": 4312,
      "urce": 4313,
      "ses": 4314,
      "filename": 4315,
      "mple": 4316,
      "action": 4317,
      "handle": 4318,
      "UL": 4319,
      "cal": 4320,
      "Te": 4321,
      "req": 4322,
      "event": 4323,
      "valueÄ": 4324,
      "igh": 4325,
      "OL": 4326,
      "Num": 4327,
      "R_": 4328,
      "Äy": 4329,
      "flagsÄ": 4330,
      "RI": 4331,
      "ers": 4332,
      "AM": 4333,
      "cl": 4334,
      "tt": 4335,
      "OB": 4336,
      "port": 4337,
      "resultÄ": 4338,
      "ÄelseÄifÄ": 4339,
      "Key": 4340,
      "ÄL": 4341,
      "ite": 4342,
      "kÄ": 4343,
      "lass": 4344,
      "rintf": 4345,
      "cop": 4346,
      "src": 4347,
      "ml": 4348,
      "lev": 4349,
      "'\\": 4350,
      "ress": 4351,
      "UT": 4352,
      "stream": 4353,
      "rt": 4354,
      "od": 4355,
      "mar": 4356,
      "Wid": 4357,
      "ng": 4358,
      "object_": 4359,
      "image": 4360,
      "argv": 4361,
      "sign": 4362,
      "countÄ": 4363,
      "inue": 4364,
      "lean": 4365,
      "ing_": 4366,
      "mask": 4367,
      "SP": 4368,
      "cast": 4369,
      "For": 4370,
      "0x": 4371,
      "ÄA": 4372,
      "av": 4373,
      "EXP": 4374,
      "rec": 4375,
      "object": 4376,
      "ft": 4377,
      "ide": 4378,
      "tk_": 4379,
      "Äst": 4380,
      "can": 4381,
      "VER": 4382,
      "uint8": 4383,
      "vector": 4384,
      "EQ": 4385,
      "gra": 4386,
      "ard": 4387,
      "Äpo": 4388,
      "He": 4389,
      "MAX": 4390,
      "config": 4391,
      "ceÄ": 4392,
      "Ptr": 4393,
      "Ä8": 4394,
      "DEBU": 4395,
      "rent_": 4396,
      "cpy": 4397,
      "Äbuf": 4398,
      "Text": 4399,
      "Is": 4400,
      "frame": 4401,
      "ifdef": 4402,
      "ll": 4403,
      "unction": 4404,
      "quest": 4405,
      "level": 4406,
      "switchÄ": 4407,
      "ler": 4408,
      "_de": 4409,
      "bug": 4410,
      "ÄÄÄÄÄÄÄÄÄÄÄÄÄÄÄÄÄÄÄÄÄÄÄÄÄÄÄÄ": 4411,
      "LOC": 4412,
      "nd": 4413,
      "stateÄ": 4414,
      "IC": 4415,
      "SC": 4416,
      "Mode": 4417,
      "sele": 4418,
      "Äto": 4419,
      "Buffer": 4420,
      "tra": 4421,
      "%s\"": 4422,
      "new_": 4423,
      "aliz": 4424,
      "group": 4425,
      "gen": 4426,
      "ON_": 4427,
      "Äo": 4428,
      "Py": 4429,
      "move": 4430,
      "_get_": 4431,
      "upd": 4432,
      "bl": 4433,
      "allback": 4434,
      "trans": 4435,
      "Ästd": 4436,
      "ting": 4437,
      "Äpro": 4438,
      "per": 4439,
      "ÄÄÄÄÄÄreturnÄ": 4440,
      "por": 4441,
      "trol": 4442,
      "add_": 4443,
      "NE": 4444,
      "item": 4445,
      "ALL": 4446,
      "ity": 4447,
      "Stat": 4448,
      "net": 4449,
      "idx": 4450,
      "I_": 4451,
      "N_": 4452,
      "ÄFALSE": 4453,
      "errÄ": 4454,
      "PRO": 4455,
      "scri": 4456,
      "errorÄ": 4457,
      "Cur": 4458,
      "max_": 4459,
      "sition": 4460,
      "Äpar": 4461,
      "ams": 4462,
      "Äcur": 4463,
      "Sp": 4464,
      "out_": 4465,
      "ree_": 4466,
      "child": 4467,
      "At": 4468,
      "statusÄ": 4469,
      "_e": 4470,
      "ÄÄg": 4471,
      "alÄ": 4472,
      "devic": 4473,
      "fix": 4474,
      "ÄR": 4475,
      "lob": 4476,
      "mutex": 4477,
      "Window": 4478,
      "Time": 4479,
      "inÄ": 4480,
      "context": 4481,
      "lear": 4482,
      "log_": 4483,
      "Path": 4484,
      "Item": 4485,
      "valid": 4486,
      "Th": 4487,
      "ECT_": 4488,
      "red": 4489,
      "fs": 4490,
      "lab": 4491,
      "Älen": 4492,
      "unsignedÄintÄ": 4493,
      "_s": 4494,
      "leÄ": 4495,
      "ory": 4496,
      "cmd": 4497,
      "las": 4498,
      "ep": 4499,
      "OC": 4500,
      "GL": 4501,
      "end_": 4502,
      "fe": 4503,
      "syn": 4504,
      "OBJ": 4505,
      "Tr": 4506,
      "listÄ": 4507,
      "BO": 4508,
      "ont": 4509,
      "num_": 4510,
      "se_": 4511,
      ".\"": 4512,
      "Ä%": 4513,
      "arch": 4514,
      "Index": 4515,
      "arget": 4516,
      "ang": 4517,
      "env": 4518,
      "channel": 4519,
      "pc": 4520,
      "_Ä": 4521,
      "LOG_": 4522,
      "sg": 4523,
      "enu": 4524,
      "lement": 4525,
      "Äop": 4526,
      "DAT": 4527,
      "sq": 4528,
      "DB": 4529,
      "notÄ": 4530,
      "IS": 4531,
      "Äname": 4532,
      "store": 4533,
      "fs_": 4534,
      "hw": 4535,
      "ie": 4536,
      "ini": 4537,
      "dup": 4538,
      "sr": 4539,
      "aÄ": 4540,
      "UP": 4541,
      "test": 4542,
      "Read": 4543,
      "ace_": 4544,
      "UC": 4545,
      "ÄV": 4546,
      "ibu": 4547,
      "Ädi": 4548,
      "cb": 4549,
      "wa": 4550,
      "_SI": 4551,
      "acti": 4552,
      "cere": 4553,
      "stringÄ": 4554,
      "Ev": 4555,
      "\"%": 4556,
      "02": 4557,
      "Ätmp": 4558,
      "gr": 4559,
      "ption": 4560,
      "FALSE": 4561,
      "RA": 4562,
      "endÄ": 4563,
      "array": 4564,
      "Log": 4565,
      "textÄ": 4566,
      "session": 4567,
      "data_": 4568,
      "form": 4569,
      "autoÄ": 4570,
      "indexÄ": 4571,
      "LEN": 4572,
      "label": 4573,
      "field": 4574,
      "ÄÄÄÄÄÄÄÄcaseÄ": 4575,
      "ice": 4576,
      "Table": 4577,
      "000": 4578,
      "ÄÄÄÄg": 4579,
      "_SE": 4580,
      "STR": 4581,
      "Int": 4582,
      "reate": 4583,
      "W_": 4584,
      "ÄÄÄÄÄÄÄÄÄÄÄÄÄÄÄÄÄÄ": 4585,
      "lineÄ": 4586,
      "INVAL": 4587,
      "word": 4588,
      "token": 4589,
      "alo": 4590,
      "IO": 4591,
      "Äz": 4592,
      "Ä1Ä": 4593,
      "ÄÄÄÄÄÄÄÄÄÄÄÄÄÄÄÄifÄ": 4594,
      "s\"": 4595,
      "Reg": 4596,
      "ObjectÄ": 4597,
      "work": 4598,
      "map_": 4599,
      "State": 4600,
      "ÄQ": 4601,
      "stro": 4602,
      "0'": 4603,
      "IT_": 4604,
      "fp": 4605,
      "mi": 4606,
      "Äbreak": 4607,
      "ibute": 4608,
      "run": 4609,
      "ÄNULLÄ": 4610,
      "ÄTRUE": 4611,
      "Out": 4612,
      "aile": 4613,
      "init": 4614,
      "pth": 4615,
      "cm": 4616,
      "close": 4617,
      "Äbo": 4618,
      "Sy": 4619,
      "fileÄ": 4620,
      "mpty": 4621,
      "test_": 4622,
      "tim": 4623,
      "25": 4624,
      "getÄ": 4625,
      "GT": 4626,
      "cel": 4627,
      "page": 4628,
      "pack": 4629,
      "Comp": 4630,
      "version": 4631,
      "lic": 4632,
      "cod": 4633,
      "DO": 4634,
      "ASSERT_": 4635,
      "header": 4636,
      "\"\"": 4637,
      "veÄ": 4638,
      "3_": 4639,
      "main": 4640,
      "ÄconstÄcharÄ": 4641,
      "pert": 4642,
      "jo": 4643,
      "MS": 4644,
      "boo": 4645,
      "outÄ": 4646,
      "cond": 4647,
      "value_": 4648,
      "ED": 4649,
      "cs": 4650,
      "V_": 4651,
      "Äse": 4652,
      "unk": 4653,
      "int32": 4654,
      "user": 4655,
      "Flag": 4656,
      "11": 4657,
      "Count": 4658,
      "change": 4659,
      "Test": 4660,
      "Res": 4661,
      "Ä5": 4662,
      "_CON": 4663,
      "So": 4664,
      "tag": 4665,
      "DE_": 4666,
      "Äth": 4667,
      "disp": 4668,
      "ÄÄforÄ": 4669,
      "ick": 4670,
      "regist": 4671,
      "FO": 4672,
      "ÄstructÄ": 4673,
      "point": 4674,
      "cf": 4675,
      "quer": 4676,
      "ace": 4677,
      "uint32_tÄ": 4678,
      "type_": 4679,
      "ÄÄÄÄÄÄÄÄÄÄÄÄreturnÄ": 4680,
      "defin": 4681,
      "top": 4682,
      "allo": 4683,
      "height": 4684,
      "spec": 4685,
      "oc": 4686,
      "Map": 4687,
      "ÄÄÄÄconstÄ": 4688,
      "AME": 4689,
      "dis": 4690,
      "longÄ": 4691,
      "pix": 4692,
      "last": 4693,
      "my": 4694,
      "ENT": 4695,
      "htt": 4696,
      "Ver": 4697,
      "infoÄ": 4698,
      "IG": 4699,
      "hand": 4700,
      "edÄ": 4701,
      "host": 4702,
      "return_": 4703,
      "Vi": 4704,
      "Äout": 4705,
      "\"%s": 4706,
      "tern": 4707,
      "q_": 4708,
      "..": 4709,
      "IP": 4710,
      "ast": 4711,
      "TypeÄ": 4712,
      "ueÄ": 4713,
      "vice": 4714,
      "intÄi": 4715,
      "tx": 4716,
      "ÄW": 4717,
      "ba": 4718,
      "Context": 4719,
      "Al": 4720,
      "SÄ": 4721,
      "ÄÄÄÄÄÄÄÄÄÄÄ": 4722,
      "last_": 4723,
      "stderr": 4724,
      "lengthÄ": 4725,
      "offsetÄ": 4726,
      "Gui": 4727,
      "TO": 4728,
      "sd": 4729,
      "push": 4730,
      "ID_": 4731,
      "Block": 4732,
      "anag": 4733,
      "ed_": 4734,
      "first": 4735,
      "Char": 4736,
      "buffer_": 4737,
      "ld": 4738,
      "pd": 4739,
      "AG": 4740,
      "text_": 4741,
      "id_": 4742,
      "error_": 4743,
      "core": 4744,
      "_CO": 4745,
      "ptrÄ": 4746,
      "stack": 4747,
      "now": 4748,
      "LOG": 4749,
      "conn": 4750,
      "_CH": 4751,
      "Ac": 4752,
      "cale": 4753,
      "_path": 4754,
      "Im": 4755,
      "rig": 4756,
      "root": 4757,
      "Point": 4758,
      "New": 4759,
      "Li": 4760,
      "bufÄ": 4761,
      "begin": 4762,
      "EL": 4763,
      "Array": 4764,
      "codeÄ": 4765,
      "IF": 4766,
      "_STAT": 4767,
      "CON": 4768,
      "_d": 4769,
      "next_": 4770,
      "yx_": 4771,
      "ls": 4772,
      "arra": 4773,
      "ifi": 4774,
      "Comm": 4775,
      "orm": 4776,
      ")\"": 4777,
      "ute": 4778,
      "ult_": 4779,
      "Äthis": 4780,
      "sz": 4781,
      "Mo": 4782,
      "box": 4783,
      "TT": 4784,
      "lim": 4785,
      "Length": 4786,
      "ulti": 4787,
      "Äsize": 4788,
      "'\\0'": 4789,
      "Gtk": 4790,
      "ch_": 4791,
      "lem": 4792,
      "key_": 4793,
      "act": 4794,
      "Ve": 4795,
      "AL_": 4796,
      "lot": 4797,
      "ature": 4798,
      "ÄO": 4799,
      "Änode": 4800,
      "AV": 4801,
      "H_": 4802,
      "write_": 4803,
      "et_": 4804,
      "server": 4805,
      "Color": 4806,
      "Arg": 4807,
      "unlock": 4808,
      "flags": 4809,
      "oÄ": 4810,
      "Message": 4811,
      "dule": 4812,
      "Ävalue": 4813,
      "ato": 4814,
      "DEBUG": 4815,
      "its": 4816,
      "cache": 4817,
      "ÄÄÄÄÄÄÄÄÄÄÄÄÄÄÄ": 4818,
      "op_": 4819,
      "TION": 4820,
      "layer": 4821,
      "art": 4822,
      "CESS": 4823,
      "TEX": 4824,
      "rcÄ": 4825,
      "Line": 4826,
      "ÄcharÄ": 4827,
      "Byte": 4828,
      "mp_": 4829,
      "Image": 4830,
      "tedÄ": 4831,
      "LIN": 4832,
      "link": 4833,
      "and_": 4834,
      "ci": 4835,
      "cach": 4836,
      "ument": 4837,
      "hdr": 4838,
      "son": 4839,
      "ationÄ": 4840,
      "enable": 4841,
      "fin": 4842,
      "Ä__": 4843,
      "umn": 4844,
      "EXPECT_": 4845,
      "stance": 4846,
      "heck": 4847,
      "elseÄÄÄÄ": 4848,
      "butt": 4849,
      "opt": 4850,
      "options": 4851,
      "war": 4852,
      "device": 4853,
      "Sh": 4854,
      "freeÄ": 4855,
      "Strea": 4856,
      "Cli": 4857,
      "spon": 4858,
      "mon": 4859,
      "mod": 4860,
      "Var": 4861,
      "IS_": 4862,
      "ke_": 4863,
      "AIL": 4864,
      "PU": 4865,
      "ÄX": 4866,
      "_fail": 4867,
      "ru": 4868,
      "Mat": 4869,
      "start_": 4870,
      "user_": 4871,
      "unsignedÄcharÄ": 4872,
      "_SIZE": 4873,
      "tain": 4874,
      "SIZE": 4875,
      "ÄÄÄÄÄÄbreak": 4876,
      "meth": 4877,
      "Äsp": 4878,
      "expr": 4879,
      "static_": 4880,
      "rom_": 4881,
      "dev_": 4882,
      "Event": 4883,
      "ion": 4884,
      "Ä_tmp": 4885,
      "TYPE": 4886,
      "ger": 4887,
      "otÄ": 4888,
      "thread": 4889,
      "gtk_": 4890,
      "Fi": 4891,
      "ÄÄÄifÄ": 4892,
      "Ser": 4893,
      "Attr": 4894,
      "Code": 4895,
      "dy": 4896,
      "isÄ": 4897,
      "connection": 4898,
      "Ä6": 4899,
      "confi": 4900,
      "Äq": 4901,
      "ader": 4902,
      "strÄ": 4903,
      "Frame": 4904,
      "50": 4905,
      "REG": 4906,
      "ÄÄif": 4907,
      "Mem": 4908,
      "pi": 4909,
      "yle": 4910,
      "us_": 4911,
      "range": 4912,
      "Qu": 4913,
      "SizeÄ": 4914,
      "RES": 4915,
      "_back": 4916,
      "lua": 4917,
      "CT": 4918,
      "startÄ": 4919,
      "we": 4920,
      "Off": 4921,
      "jÄ": 4922,
      "wr": 4923,
      "Äarg": 4924,
      "posÄ": 4925,
      "Äget": 4926,
      "_g": 4927,
      "resÄ": 4928,
      "ameter": 4929,
      "cpu": 4930,
      "ÄÄÄÄÄÄÄÄif": 4931,
      "uint8_tÄ": 4932,
      "c_str": 4933,
      "io_": 4934,
      "hash_": 4935,
      "Ä16": 4936,
      "bs": 4937,
      "----": 4938,
      "track": 4939,
      "cap": 4940,
      "ÄÄÄÄÄÄÄÄÄÄÄÄbreak": 4941,
      "LOCK": 4942,
      "tings": 4943,
      "local": 4944,
      "string_": 4945,
      "tot": 4946,
      "line_": 4947,
      "FILE": 4948,
      "conf": 4949,
      "dst": 4950,
      "MB": 4951,
      "Handle": 4952,
      "Äconst": 4953,
      "source": 4954,
      "client": 4955,
      "ightÄ": 4956,
      "nextÄ": 4957,
      "andÄ": 4958,
      "iterator": 4959,
      "ÄvoidÄ": 4960,
      "Write": 4961,
      "ASSERT": 4962,
      "ÄÄÄÄp": 4963,
      "Äkey": 4964,
      "br": 4965,
      "UCCESS": 4966,
      "Check": 4967,
      "ullptr": 4968,
      "Config": 4969,
      "On": 4970,
      "current_": 4971,
      "if_fail": 4972,
      "lat": 4973,
      "ten": 4974,
      "ÄÄÄÄÄÄÄÄÄÄÄÄÄÄÄÄÄÄÄÄÄÄ": 4975,
      "Vector": 4976,
      "stroy": 4977,
      "Änum": 4978,
      "mbol": 4979,
      "ash": 4980,
      "output": 4981,
      "Äflag": 4982,
      "8Ä": 4983,
      "From": 4984,
      "tail": 4985,
      "u32": 4986,
      "CL": 4987,
      "ORD": 4988,
      "%s\\n\"": 4989,
      "modeÄ": 4990,
      "uint64": 4991,
      "adap": 4992,
      "boolean": 4993,
      "w_": 4994,
      "3Ä": 4995,
      "ARG": 4996,
      "View": 4997,
      "queue": 4998,
      "Äget_": 4999,
      "control": 5000,
      "os": 5001,
      "HE": 5002,
      "mpl": 5003,
      "_pyx_": 5004,
      "ster": 5005,
      "current": 5006,
      "auth": 5007,
      "Pre": 5008,
      "ONE": 5009,
      "VI": 5010,
      "Option": 5011,
      "clear": 5012,
      "event_": 5013,
      "dest": 5014,
      "reeÄ": 5015,
      "ecere": 5016,
      "sup": 5017,
      "PO": 5018,
      "Trans": 5019,
      "dire": 5020,
      "%dÄ": 5021,
      "ACK": 5022,
      "Au": 5023,
      ".0f": 5024,
      "ENT_": 5025,
      "Lay": 5026,
      "\\t": 5027,
      "FOR": 5028,
      "seq": 5029,
      "MEM": 5030,
      "DEF": 5031,
      "ner": 5032,
      "ng_": 5033,
      "Äso": 5034,
      "pla": 5035,
      "Äsize_tÄ": 5036,
      "alog": 5037,
      "ÄÄG": 5038,
      "scan": 5039,
      "STAT": 5040,
      "okup": 5041,
      "GTK_": 5042,
      "_m": 5043,
      "Äend": 5044,
      "Äfile": 5045,
      ".\\n\"": 5046,
      "cat": 5047,
      "dp": 5048,
      "ply": 5049,
      "Äch": 5050,
      "itor": 5051,
      "face": 5052,
      "with": 5053,
      "Sa": 5054,
      "BIT": 5055,
      "cc": 5056,
      "boolÄ": 5057,
      "ies": 5058,
      "tl": 5059,
      "defined": 5060,
      "parent": 5061,
      "g_return_": 5062,
      "second": 5063,
      "refÄ": 5064,
      "vec": 5065,
      "AND": 5066,
      "share": 5067,
      "_set_": 5068,
      "Ä10": 5069,
      "caseÄ0x": 5070,
      "App": 5071,
      "ic_": 5072,
      "ste": 5073,
      "Format": 5074,
      "task": 5075,
      "20": 5076,
      "\"C": 5077,
      "Äpath": 5078,
      "asser": 5079,
      "NAME": 5080,
      "append": 5081,
      "addrÄ": 5082,
      "ÄGet": 5083,
      "send": 5084,
      "ÄÄÄÄreturn": 5085,
      "remo": 5086,
      "debug": 5087,
      "ÄÄÄÄÄÄÄÄreturn": 5088,
      "old_": 5089,
      "_free": 5090,
      "ary": 5091,
      "array_": 5092,
      "oper": 5093,
      "bus_": 5094,
      "End": 5095,
      "Ästrlen": 5096,
      "cryp": 5097,
      "ception": 5098,
      "as_": 5099,
      "exit": 5100,
      "sk_": 5101,
      "nodeÄ": 5102,
      "anager": 5103,
      "sv": 5104,
      "WAR": 5105,
      "ÄU": 5106,
      "ue_": 5107,
      "ÄÄÄÄÄÄÄÄforÄ": 5108,
      "wÄ": 5109,
      "show": 5110,
      "copy": 5111,
      "number": 5112,
      "%sÄ": 5113,
      "u_": 5114,
      "free_": 5115,
      "request": 5116,
      "desc": 5117,
      "PAR": 5118,
      "_size": 5119,
      "ortÄ": 5120,
      "den": 5121,
      "ÄÄÄÄÄÄÄÄbreak": 5122,
      "CHEC": 5123,
      "READ": 5124,
      "command": 5125,
      "cket": 5126,
      "GET_": 5127,
      "uni": 5128,
      "input": 5129,
      "ÄÄcaseÄ": 5130,
      "lease": 5131,
      "val_": 5132,
      "Tree": 5133,
      "serv": 5134,
      "_pre": 5135,
      "ign": 5136,
      "Status": 5137,
      "Max": 5138,
      "PL": 5139,
      "ERROR_": 5140,
      "END": 5141,
      "intern": 5142,
      "_id": 5143,
      "Äsrc": 5144,
      "INFO": 5145,
      "MAX_": 5146,
      ")Ä": 5147,
      "_name": 5148,
      "TL": 5149,
      "Ed": 5150,
      "xml": 5151,
      "24": 5152,
      "SH": 5153,
      "_priv": 5154,
      "ATI": 5155,
      "bar": 5156,
      "SK": 5157,
      "lobal": 5158,
      "match": 5159,
      "ify": 5160,
      "lan": 5161,
      "Create": 5162,
      "ABLE": 5163,
      "af": 5164,
      "FLA": 5165,
      "d\"": 5166,
      "param": 5167,
      "ener": 5168,
      "ush": 5169,
      "olu": 5170,
      "ly": 5171,
      "ÄÄÄÄreturnÄ0": 5172,
      "80": 5173,
      "inode": 5174,
      "Base": 5175,
      "state_": 5176,
      "Input": 5177,
      "StringÄ": 5178,
      "tab": 5179,
      "clu": 5180,
      "button": 5181,
      "ell": 5182,
      "Of": 5183,
      "widthÄ": 5184,
      "enc": 5185,
      "sum": 5186,
      "Number": 5187,
      "rb": 5188,
      "ker": 5189,
      "gn": 5190,
      "tit": 5191,
      "returnÄNULL": 5192,
      "stem": 5193,
      "ÄÄÄÄP": 5194,
      "reen": 5195,
      "sert": 5196,
      "rentÄ": 5197,
      "empty": 5198,
      "15": 5199,
      "utt": 5200,
      "push_back": 5201,
      "actor": 5202,
      "deviceÄ": 5203,
      "ai": 5204,
      "Start": 5205,
      "sour": 5206,
      "UB": 5207,
      "init_": 5208,
      "build": 5209,
      "terÄ": 5210,
      "MI": 5211,
      "No": 5212,
      "ctionÄ": 5213,
      "\"F": 5214,
      "Äpre": 5215,
      "ÄÄÄÄÄÄÄÄÄÄÄÄÄ": 5216,
      "bufferÄ": 5217,
      "uid": 5218,
      "qui": 5219,
      "ADD": 5220,
      "ee": 5221,
      "space": 5222,
      "lib": 5223,
      "ÄÄÄÄcharÄ": 5224,
      "pha": 5225,
      "device_": 5226,
      "attribute": 5227,
      "perty": 5228,
      "size_t": 5229,
      "config_": 5230,
      "Tra": 5231,
      "4_": 5232,
      "keyÄ": 5233,
      "rix": 5234,
      "%d\"": 5235,
      "doubleÄ": 5236,
      "numÄ": 5237,
      "tive": 5238,
      "cache_": 5239,
      "aceÄ": 5240,
      "filter": 5241,
      "Init": 5242,
      "mutex_": 5243,
      "ÄJ": 5244,
      "strdup": 5245,
      "rd": 5246,
      "if_failÄ": 5247,
      "timeÄ": 5248,
      "func": 5249,
      "update_": 5250,
      "Pos": 5251,
      "stream_": 5252,
      "Width": 5253,
      "AD_": 5254,
      "YÄ": 5255,
      "newÄ": 5256,
      "Inter": 5257,
      "staticÄvoidÄ": 5258,
      "make_": 5259,
      "REF": 5260,
      "_info": 5261,
      "alloc_": 5262,
      "gcharÄ": 5263,
      "EV": 5264,
      "QU": 5265,
      "model": 5266,
      "Sc": 5267,
      "ÄÄconstÄ": 5268,
      "%d\\n\"": 5269,
      "_STR": 5270,
      "ain": 5271,
      "check_": 5272,
      "left": 5273,
      "TEST_": 5274,
      "hÄ": 5275,
      "\"/": 5276,
      "theÄ": 5277,
      "print": 5278,
      "win": 5279,
      "Free": 5280,
      "m_p": 5281,
      "spe": 5282,
      ");": 5283,
      "script": 5284,
      "Äself": 5285,
      "sed": 5286,
      "Äreturn": 5287,
      "doc": 5288,
      "ValueÄ": 5289,
      "Next": 5290,
      "sb": 5291,
      "DATA": 5292,
      "ted_": 5293,
      "Ref": 5294,
      "ImGui": 5295,
      "Äfaile": 5296,
      "ÄÄÄÄstructÄ": 5297,
      "ixel": 5298,
      "_data": 5299,
      "tran": 5300,
      "ERR_": 5301,
      "WIN": 5302,
      "ListÄ": 5303,
      "Pa": 5304,
      "ip_": 5305,
      "the": 5306,
      "Stream": 5307,
      "Äbool": 5308,
      "clas": 5309,
      "Sub": 5310,
      "TUR": 5311,
      "hs": 5312,
      "ap_": 5313,
      "bytes": 5314,
      "ÄÄÄÄÄÄcaseÄ": 5315,
      "ad_": 5316,
      "cn": 5317,
      "An": 5318,
      "output_": 5319,
      "OBJEC": 5320,
      "ngx_": 5321,
      "lush": 5322,
      "ÄjÄ": 5323,
      "has_": 5324,
      "dn": 5325,
      "ÄÄÄÄwhileÄ": 5326,
      "AT_": 5327,
      "GL_": 5328,
      "ÄÄÄÄÄÄÄÄÄÄÄÄÄÄÄÄÄÄÄÄÄÄÄÄÄÄÄÄÄÄ": 5329,
      "com": 5330,
      "lookup": 5331,
      "git_": 5332,
      "save": 5333,
      "table_": 5334,
      "qual": 5335,
      "ant": 5336,
      "ded": 5337,
      "sl": 5338,
      "Äwh": 5339,
      "Ä0x0": 5340,
      "__ecere": 5341,
      "Conne": 5342,
      "fn": 5343,
      "REE_": 5344,
      "ort_": 5345,
      "IN_": 5346,
      "intÄiÄ": 5347,
      "ds": 5348,
      "putÄ": 5349,
      "tc": 5350,
      "CR": 5351,
      "PI": 5352,
      "buf_": 5353,
      "55": 5354,
      "VE": 5355,
      "ning": 5356,
      "ING_": 5357,
      "create": 5358,
      "ML": 5359,
      "orig": 5360,
      "da": 5361,
      "update": 5362,
      "rag": 5363,
      "str_": 5364,
      "Äbuffer": 5365,
      "objectÄ": 5366,
      "ACE": 5367,
      "8_": 5368,
      "ÄÄÄÄG": 5369,
      "Ä\"": 5370,
      "Entry": 5371,
      "uint16": 5372,
      "Ämode": 5373,
      "0_": 5374,
      "lugin": 5375,
      "find": 5376,
      "vari": 5377,
      "ATE": 5378,
      "ENO": 5379,
      "all_": 5380,
      "ÄisÄ": 5381,
      "Device": 5382,
      "Äid": 5383,
      "FILE_": 5384,
      "opÄ": 5385,
      "msg_": 5386,
      "Function": 5387,
      "Ca": 5388,
      "query": 5389,
      "vide": 5390,
      "Current": 5391,
      "sta": 5392,
      "tree": 5393,
      "Obj": 5394,
      "bin": 5395,
      "oo": 5396,
      "dif": 5397,
      "Änullptr": 5398,
      "Äflags": 5399,
      "TC": 5400,
      "send_": 5401,
      "devÄ": 5402,
      "berÄ": 5403,
      "qÄ": 5404,
      "Sele": 5405,
      "UINT": 5406,
      "Le": 5407,
      "target": 5408,
      "ÄÄÄÄÄÄÄÄÄÄÄÄÄÄÄÄÄÄÄ": 5409,
      "Element": 5410,
      "input_": 5411,
      "Lock": 5412,
      "sec": 5413,
      "OR_": 5414,
      "Box": 5415,
      "del": 5416,
      "lock_": 5417,
      "UNC": 5418,
      "yy": 5419,
      "draw": 5420,
      "ink": 5421,
      "__pyx_": 5422,
      "Äinfo": 5423,
      "Äctx": 5424,
      "cnt": 5425,
      "menu": 5426,
      "rp": 5427,
      "Ä2Ä": 5428,
      "Rec": 5429,
      "dio": 5430,
      "entryÄ": 5431,
      "ÄÄÄÄÄÄÄÄÄÄÄÄÄÄÄÄÄÄÄÄÄ": 5432,
      "ive": 5433,
      "Äsy": 5434,
      "handler": 5435,
      "column": 5436,
      "TER": 5437,
      "Command": 5438,
      "Äsh": 5439,
      "http_": 5440,
      "\"ÄÄ": 5441,
      "sm": 5442,
      "Äval": 5443,
      "ild_": 5444,
      "from": 5445,
      "undÄ": 5446,
      "rect": 5447,
      "seg": 5448,
      "ÄÄÄÄc": 5449,
      "PR": 5450,
      "Oper": 5451,
      "INTER": 5452,
      "xy": 5453,
      "cted": 5454,
      "13": 5455,
      "g_object_": 5456,
      "Hash": 5457,
      "search": 5458,
      "4Ä": 5459,
      "h_": 5460,
      "Dir": 5461,
      "pool": 5462,
      "_SUCCESS": 5463,
      "staticÄintÄ": 5464,
      "Äret": 5465,
      "edge": 5466,
      "Ämax": 5467,
      "ÄÄÄÄf": 5468,
      "lite": 5469,
      "Ä0xff": 5470,
      "opy": 5471,
      "params": 5472,
      "tializ": 5473,
      "widget_": 5474,
      "SY": 5475,
      "DC": 5476,
      "int64": 5477,
      "AUL": 5478,
      "_flag": 5479,
      "ension": 5480,
      "gener": 5481,
      "entry_": 5482,
      "stats": 5483,
      "returnÄret": 5484,
      "DÄ": 5485,
      "let": 5486,
      "Token": 5487,
      "INT_": 5488,
      "utÄ": 5489,
      "queue_": 5490,
      "**": 5491,
      "right": 5492,
      "ÄÄEXPECT_": 5493,
      "5_": 5494,
      "SION": 5495,
      "Äex": 5496,
      "sponse": 5497,
      "mer": 5498,
      "SET": 5499,
      "_printf": 5500,
      "vm": 5501,
      "lp": 5502,
      "hi": 5503,
      "address": 5504,
      "ter_": 5505,
      "BY": 5506,
      "orage": 5507,
      "Result": 5508,
      "IR": 5509,
      "BE": 5510,
      "Äis": 5511,
      "ression": 5512,
      "lable": 5513,
      "Fil": 5514,
      "cess_": 5515,
      "callback": 5516,
      "down": 5517,
      "ob": 5518,
      "unc_": 5519,
      "ost": 5520,
      "ation_": 5521,
      "order": 5522,
      "MASK": 5523,
      "6_": 5524,
      "Äptr": 5525,
      "\\x": 5526,
      "roo": 5527,
      "orÄ": 5528,
      "fdÄ": 5529,
      "SQ": 5530,
      "argc": 5531,
      "expec": 5532,
      "JS": 5533,
      "XÄ": 5534,
      "heightÄ": 5535,
      "module": 5536,
      "or_": 5537,
      "Group": 5538,
      "DEBUG_": 5539,
      "ero": 5540,
      "Ätype": 5541,
      "US_": 5542,
      "irq": 5543,
      "encod": 5544,
      "Exp": 5545,
      "call": 5546,
      "mark": 5547,
      "IL": 5548,
      "Äpa": 5549,
      "100": 5550,
      "reque": 5551,
      "ÄÄÄÄbreak": 5552,
      "Äerror": 5553,
      "POR": 5554,
      "MC": 5555,
      "Per": 5556,
      "%u": 5557,
      "constÄchar": 5558,
      "InfoÄ": 5559,
      "Ä7": 5560,
      "Bit": 5561,
      "NO_": 5562,
      "Thread": 5563,
      "icon": 5564,
      "bp": 5565,
      "oly": 5566,
      "fiel": 5567,
      "KEY": 5568,
      "NONE": 5569,
      "utton": 5570,
      "ial": 5571,
      "Iter": 5572,
      "dec": 5573,
      "sample": 5574,
      "etÄ": 5575,
      "BUFF": 5576,
      "WN": 5577,
      "ÄRE": 5578,
      "quen": 5579,
      "sync": 5580,
      "uple": 5581,
      "OF": 5582,
      "ong": 5583,
      "inte": 5584,
      "Control": 5585,
      "Param": 5586,
      "Rect": 5587,
      "hel": 5588,
      "lg": 5589,
      "ÄÄÄÄelse": 5590,
      "uc": 5591,
      "returnÄfalse": 5592,
      "\"\\n\"": 5593,
      "rel": 5594,
      "contain": 5595,
      "32Ä": 5596,
      "DataÄ": 5597,
      "Älist": 5598,
      "mem_": 5599,
      "SD": 5600,
      "ther": 5601,
      "default_": 5602,
      "imp": 5603,
      "Ätr": 5604,
      "Äwid": 5605,
      "URE": 5606,
      "ÄÄÄÄstd": 5607,
      "wx": 5608,
      "acket": 5609,
      "ET": 5610,
      "parse": 5611,
      "lig": 5612,
      "Row": 5613,
      "errnoÄ": 5614,
      "PF": 5615,
      "TO_": 5616,
      "Äargv": 5617,
      "ib": 5618,
      "GB": 5619,
      "Äma": 5620,
      "u8": 5621,
      "Button": 5622,
      "Debug": 5623,
      "ctr": 5624,
      "loop": 5625,
      "ÄK": 5626,
      "evel": 5627,
      "ched": 5628,
      "up_": 5629,
      "ÄPy": 5630,
      "Ämo": 5631,
      "re_": 5632,
      "widget": 5633,
      "WR": 5634,
      "TIME": 5635,
      "time_": 5636,
      "validÄ": 5637,
      "Widget": 5638,
      ".5": 5639,
      "WORD": 5640,
      "Func": 5641,
      "Field": 5642,
      "ran": 5643,
      "Äreg": 5644,
      "strn": 5645,
      "NodeÄ": 5646,
      "man": 5647,
      "chr": 5648,
      "ents": 5649,
      "ju": 5650,
      "cinfo": 5651,
      "name_": 5652,
      "ÄÄÄÄÄÄÄÄÄÄÄÄÄÄÄÄÄÄÄÄÄÄÄÄÄÄÄÄÄÄÄÄÄÄÄÄÄÄÄÄ": 5653,
      "ableÄ": 5654,
      "sym": 5655,
      "url": 5656,
      "VALUE": 5657,
      "14": 5658,
      "Do": 5659,
      "Offset": 5660,
      "til": 5661,
      "dict": 5662,
      "ÄZ": 5663,
      "Page": 5664,
      "Dis": 5665,
      "over": 5666,
      "SET_": 5667,
      "Output": 5668,
      "ÄÄÄÄs": 5669,
      "ressÄ": 5670,
      "sible": 5671,
      "StateÄ": 5672,
      "MD": 5673,
      "ÄÄÄÄÄÄÄÄÄÄÄÄÄÄÄÄÄÄÄÄÄÄÄÄÄÄ": 5674,
      "inish": 5675,
      "Äbyte": 5676,
      "Upd": 5677,
      "UM": 5678,
      "spin_": 5679,
      "first_": 5680,
      "GR": 5681,
      "voidÄÄ": 5682,
      "TS": 5683,
      "Äal": 5684,
      "tar": 5685,
      "settings": 5686,
      "streamÄ": 5687,
      "Menu": 5688,
      "ated": 5689,
      "maskÄ": 5690,
      "Ite": 5691,
      "56": 5692,
      "'%s": 5693,
      "EXT": 5694,
      "exec": 5695,
      ")\\n\"": 5696,
      "Äpos": 5697,
      "99": 5698,
      "ÄÄÄÄ_": 5699,
      "dÄtoÄ": 5700,
      "TED": 5701,
      "Q_": 5702,
      "returnÄ1": 5703,
      "MAT": 5704,
      "Address": 5705,
      "Model": 5706,
      "lef": 5707,
      "ma_": 5708,
      "Äit": 5709,
      "Level": 5710,
      "connect": 5711,
      "tic": 5712,
      "TA": 5713,
      "_PRO": 5714,
      "idxÄ": 5715,
      "pass": 5716,
      "Process": 5717,
      "tmpÄ": 5718,
      "WARN": 5719,
      "gp": 5720,
      "function": 5721,
      "ÄIm": 5722,
      "\"gl": 5723,
      "Open": 5724,
      "TION_": 5725,
      "ÄÄÄÄC": 5726,
      "load_": 5727,
      "unsignedÄlong": 5728,
      "gotoÄout": 5729,
      "OUT": 5730,
      "Äobj": 5731,
      "ÄÄstructÄ": 5732,
      "Ä12": 5733,
      "NG": 5734,
      "olume": 5735,
      "ITE_": 5736,
      "FLO": 5737,
      "Manager": 5738,
      "ud": 5739,
      "Ro": 5740,
      "utf": 5741,
      "unsignedÄchar": 5742,
      "elem": 5743,
      "port_": 5744,
      "graph": 5745,
      "attern": 5746,
      "print_": 5747,
      "Load": 5748,
      "Class": 5749,
      "faile": 5750,
      "Be": 5751,
      "use_": 5752,
      "=Ä": 5753,
      "40": 5754,
      "moun": 5755,
      "tp": 5756,
      "ance": 5757,
      "_SH": 5758,
      "DEC": 5759,
      "As": 5760,
      "at_": 5761,
      "method": 5762,
      "code_": 5763,
      "ÄÄcharÄ": 5764,
      "ml_": 5765,
      "_page": 5766,
      "ress_": 5767,
      "do_": 5768,
      "WID": 5769,
      "our": 5770,
      "rs": 5771,
      "Ästate": 5772,
      "128": 5773,
      "PC": 5774,
      "Äsa": 5775,
      "DEFAUL": 5776,
      "ific": 5777,
      "resh": 5778,
      "ÄsizeofÄ": 5779,
      "mapÄ": 5780,
      "Buf": 5781,
      "ATTR": 5782,
      "Wor": 5783,
      "Client": 5784,
      "Äcount": 5785,
      "GET": 5786,
      "screen": 5787,
      "Space_": 5788,
      "_tree_": 5789,
      "pri": 5790,
      "pk": 5791,
      "depth": 5792,
      "bi": 5793,
      "tryÄ": 5794,
      "unsignedÄlongÄ": 5795,
      "lay_": 5796,
      "timeout": 5797,
      "cl_": 5798,
      "task_": 5799,
      "NameÄ": 5800,
      "Draw": 5801,
      "NameSpace_": 5802,
      "done": 5803,
      "ACE_": 5804,
      "prev": 5805,
      "son_": 5806,
      "ax": 5807,
      "ÄÄÄÄm_": 5808,
      "Min": 5809,
      "values": 5810,
      "bits": 5811,
      "AGE_": 5812,
      "from_": 5813,
      "AU": 5814,
      "Äser": 5815,
      "les": 5816,
      "Äerr": 5817,
      "Äres": 5818,
      "ng_ptr": 5819,
      "IDÄ": 5820,
      "Header": 5821,
      "ÄÄÄÄelseÄifÄ": 5822,
      "With": 5823,
      "Position": 5824,
      "thread_": 5825,
      "Äco": 5826,
      "lua_": 5827,
      "Äfloat": 5828,
      "gg": 5829,
      "IndexÄ": 5830,
      "TIM": 5831,
      "SE_": 5832,
      "hd": 5833,
      "BYTE": 5834,
      "element": 5835,
      "adapter": 5836,
      "rb_": 5837,
      "Äresult": 5838,
      "DR": 5839,
      "Äcomp": 5840,
      "60": 5841,
      "status_": 5842,
      "lew": 5843,
      "shared": 5844,
      "Attribute": 5845,
      "ect": 5846,
      "RETUR": 5847,
      "Ädev": 5848,
      "ONG": 5849,
      "ÄÄÄÄÄÄÄÄg": 5850,
      "gram": 5851,
      "my_": 5852,
      "multi": 5853,
      "ÄÄÄÄÄÄÄÄÄÄÄÄÄÄÄÄÄÄÄÄÄÄÄÄÄÄÄ": 5854,
      "ARRA": 5855,
      "led": 5856,
      "ÄcÄ": 5857,
      "ÄnotÄ": 5858,
      "'tÄ": 5859,
      "sync_": 5860,
      "ÄG_": 5861,
      "_ecere": 5862,
      "Source": 5863,
      "adata": 5864,
      "server_": 5865,
      "adi": 5866,
      "REE": 5867,
      "UT_": 5868,
      "ÄÄÄÄÄÄÄÄintÄ": 5869,
      "dim": 5870,
      "uint64_tÄ": 5871,
      "Child": 5872,
      "Change": 5873,
      "oneÄ": 5874,
      "Action": 5875,
      "MODE_": 5876,
      ":Ä%": 5877,
      "client_": 5878,
      "ityÄ": 5879,
      "nam": 5880,
      "ual": 5881,
      "_byte": 5882,
      "Print": 5883,
      "FL": 5884,
      "sf": 5885,
      "Äbe": 5886,
      "tack": 5887,
      "symbol": 5888,
      "ÄÄÄÄd": 5889,
      "Hand": 5890,
      "ÄÄp": 5891,
      "_cur": 5892,
      "ES": 5893,
      "gb": 5894,
      "g_freeÄ": 5895,
      "QString": 5896,
      "Request": 5897,
      "ory_": 5898,
      "256": 5899,
      "Callback": 5900,
      "int32_tÄ": 5901,
      "Äbase": 5902,
      "Ästatic_cast": 5903,
      "EINVAL": 5904,
      "Älength": 5905,
      "Äoffset": 5906,
      "found": 5907,
      "Range": 5908,
      "index_": 5909,
      "local_": 5910,
      "NameSpace__ecere": 5911,
      "ÄÄÄÄÄÄÄÄp": 5912,
      "iph": 5913,
      "ÄÄÄÄÄÄÄÄÄÄÄÄÄÄÄÄÄÄÄÄÄÄÄÄÄÄÄÄÄÄÄÄÄÄÄÄ": 5914,
      "net_": 5915,
      "()": 5916,
      "zÄ": 5917,
      "bt": 5918,
      "fail": 5919,
      "maxÄ": 5920,
      "NameSpace__ecere__": 5921,
      "node_": 5922,
      "unit": 5923,
      "signal_": 5924,
      "job": 5925,
      "unrefÄ": 5926,
      "rowÄ": 5927,
      "position": 5928,
      "Err": 5929,
      "Parse": 5930,
      "side": 5931,
      "ASSERT_EQ": 5932,
      "EE": 5933,
      "Äcli": 5934,
      "LIST_": 5935,
      "Äcol": 5936,
      "gf": 5937,
      "\"S": 5938,
      "Enable": 5939,
      "meta": 5940,
      "cd": 5941,
      "Ätemp": 5942,
      "lex": 5943,
      "Last": 5944,
      "GE_": 5945,
      "ÄST": 5946,
      "Vari": 5947,
      "late": 5948,
      "i2": 5949,
      "esÄ": 5950,
      "am_": 5951,
      "TEST": 5952,
      "cx": 5953,
      "Äap": 5954,
      "NULLÄ": 5955,
      "StatusÄ": 5956,
      "Äblock": 5957,
      "pid": 5958,
      "ops": 5959,
      "CountÄ": 5960,
      "scription": 5961,
      "source_": 5962,
      "OFF": 5963,
      "contextÄ": 5964,
      "active": 5965,
      "pair": 5966,
      "leanup": 5967,
      "_pa": 5968,
      "fer": 5969,
      "Disp": 5970,
      ":Ä%s\"": 5971,
      "And": 5972,
      "Alloc": 5973,
      "Font": 5974,
      "pi_": 5975,
      "Parameter": 5976,
      "PyObjectÄ": 5977,
      "DEV": 5978,
      "atÄ": 5979,
      "Update": 5980,
      "Delete": 5981,
      "Memory": 5982,
      "ns": 5983,
      "Ass": 5984,
      "Äline": 5985,
      "Ämin": 5986,
      "Instance": 5987,
      "gu": 5988,
      "Äsub": 5989,
      "GH": 5990,
      "ind_": 5991,
      "timer": 5992,
      "ÄifÄ": 5993,
      "ctxÄ": 5994,
      "Ästart": 5995,
      "H5": 5996,
      "registerÄ": 5997,
      "ctory": 5998,
      "ÄpÄ": 5999,
      "Äread": 6000,
      "LAY": 6001,
      "Tag": 6002,
      "32_": 6003,
      "iv": 6004,
      "CHAR": 6005,
      "ek": 6006,
      "slot": 6007,
      "section": 6008,
      "wait": 6009,
      "MP_": 6010,
      "levelÄ": 6011,
      "RT": 6012,
      "Vertex": 6013,
      "chunk": 6014,
      "MODE": 6015,
      "'\\n": 6016,
      "vert": 6017,
      "http": 6018,
      "fr": 6019,
      "\"ÄÄÄÄ": 6020,
      "romÄ": 6021,
      "src_": 6022,
      "uldÄ": 6023,
      "Ta": 6024,
      "aw": 6025,
      "Cache": 6026,
      "sha": 6027,
      "NUM": 6028,
      "Ägo": 6029,
      "Defa": 6030,
      "stamp": 6031,
      "display": 6032,
      "annel": 6033,
      "FUNC": 6034,
      "aj": 6035,
      "insert": 6036,
      "ins": 6037,
      "Doc": 6038,
      "SED": 6039,
      "TREE_": 6040,
      "ofÄ": 6041,
      "AVE_": 6042,
      "tx_": 6043,
      "Äint": 6044,
      "Build": 6045,
      "Ämsg": 6046,
      "memory": 6047,
      "tom": 6048,
      "root_": 6049,
      "19": 6050,
      "limit": 6051,
      "ÄÄÄÄÄÄÄÄÄÄÄÄÄÄÄÄbreak": 6052,
      "\"-": 6053,
      "RC": 6054,
      "db_": 6055,
      "create_": 6056,
      "GST_": 6057,
      "refe": 6058,
      "\"<": 6059,
      "\\\\": 6060,
      "Ad": 6061,
      "rows": 6062,
      "HO": 6063,
      "_type": 6064,
      "raph": 6065,
      "DIR": 6066,
      "pathÄ": 6067,
      "mpt": 6068,
      "dirÄ": 6069,
      "HAND": 6070,
      "Height": 6071,
      "CE_": 6072,
      "portÄ": 6073,
      "bound": 6074,
      "Ä100": 6075,
      "User": 6076,
      "NOT_": 6077,
      "Call": 6078,
      "ali": 6079,
      "rx_": 6080,
      "Not": 6081,
      "used": 6082,
      "stop": 6083,
      "roll": 6084,
      "MIN": 6085,
      "item_": 6086,
      "REC": 6087,
      "WidgetÄ": 6088,
      "elseÄif": 6089,
      "Layout": 6090,
      "ÄÄelseÄÄÄÄ": 6091,
      "18": 6092,
      "place": 6093,
      "vol": 6094,
      "Stru": 6095,
      "FAIL": 6096,
      "count_": 6097,
      "eta": 6098,
      "__ecereNameSpace__ecere__": 6099,
      "OP_": 6100,
      "AP_": 6101,
      "ATE_": 6102,
      "FFFF": 6103,
      "referen": 6104,
      "Que": 6105,
      "ÄÄwhileÄ": 6106,
      "aseÄ": 6107,
      "Ä0x00": 6108,
      "'\"": 6109,
      "reÄ": 6110,
      "uint32_t": 6111,
      "mac": 6112,
      "proto": 6113,
      "ctl": 6114,
      "ÄÄÄÄÄÄÄÄÄÄÄÄcaseÄ": 6115,
      "Local": 6116,
      "cor": 6117,
      "Äindex": 6118,
      "va_": 6119,
      "ffff": 6120,
      "engin": 6121,
      "Äwidth": 6122,
      "Meth": 6123,
      "internal": 6124,
      "medi": 6125,
      "cu": 6126,
      "pad": 6127,
      "uint8_t": 6128,
      "baseÄ": 6129,
      "Property": 6130,
      "INVALID_": 6131,
      "\"In": 6132,
      "cursor": 6133,
      "OBJECTÄ": 6134,
      "ÄFI": 6135,
      "ties": 6136,
      "Matrix": 6137,
      "row_": 6138,
      "ifier": 6139,
      "ABLE_": 6140,
      "3D": 6141,
      "cfg": 6142,
      "compon": 6143,
      "Vec": 6144,
      "Änew_": 6145,
      "VAR": 6146,
      "Run": 6147,
      "PER": 6148,
      "Expr": 6149,
      "norm": 6150,
      "AME_": 6151,
      "Valid": 6152,
      "own": 6153,
      "sla": 6154,
      "Ävar": 6155,
      "ipe": 6156,
      "tor": 6157,
      "cur_": 6158,
      "g_return_val_": 6159,
      "BACK": 6160,
      "nc": 6161,
      "API": 6162,
      "IdÄ": 6163,
      "FLAG": 6164,
      "11_": 6165,
      "_to_": 6166,
      "bf": 6167,
      "30": 6168,
      "KER": 6169,
      "md_": 6170,
      "returnÄtrue": 6171,
      "Style": 6172,
      "beÄ": 6173,
      "rerror": 6174,
      "GO": 6175,
      "ÄnÄ": 6176,
      "PROC": 6177,
      "_pos": 6178,
      "ÄÄÄÄÄÄÄÄÄÄÄÄÄÄÄÄÄÄÄÄÄÄÄ": 6179,
      "tition": 6180,
      "Änum_": 6181,
      "style": 6182,
      "FS": 6183,
      "assertÄ": 6184,
      "pixel": 6185,
      "copy_": 6186,
      "te_": 6187,
      "ÄÄÄÄÄÄÄÄÄÄÄÄÄÄÄÄÄ": 6188,
      "_push": 6189,
      "\\\"%s": 6190,
      "ATION": 6191,
      "dig": 6192,
      "ASS": 6193,
      "lit": 6194,
      "MM": 6195,
      "Net": 6196,
      "des": 6197,
      "_PO": 6198,
      "64_": 6199,
      "debu": 6200,
      "mentÄ": 6201,
      "cessÄ": 6202,
      "children": 6203,
      "vp": 6204,
      "Default": 6205,
      "Float": 6206,
      "fm": 6207,
      "find_": 6208,
      "ify_": 6209,
      "Ret": 6210,
      "Server": 6211,
      "HEAD": 6212,
      "Ä(": 6213,
      "ift": 6214,
      "Target": 6215,
      "Loc": 6216,
      "ht_": 6217,
      "Ägtk_": 6218,
      "Channel": 6219,
      "real": 6220,
      "area": 6221,
      "pointerÄ": 6222,
      "nx": 6223,
      "handl": 6224,
      "17": 6225,
      "Back": 6226,
      "Äcont": 6227,
      "amil": 6228,
      "ative": 6229,
      "iter_": 6230,
      "context_": 6231,
      "rv": 6232,
      "und_": 6233,
      "casecmp": 6234,
      "tree_": 6235,
      "FILEÄ": 6236,
      ":Ä\"": 6237,
      "ome": 6238,
      "Äis_": 6239,
      "Äargs": 6240,
      "Ä32": 6241,
      "ÄÄÄÄÄÄÄÄÄÄÄÄÄÄÄÄÄÄÄÄÄÄÄÄÄÄÄÄÄÄÄÄÄÄÄÄÄÄ": 6242,
      "ret_": 6243,
      "inst": 6244,
      "packet": 6245,
      "Quer": 6246,
      "dump": 6247,
      "red_": 6248,
      "KEY_": 6249,
      "TE_": 6250,
      "per_": 6251,
      "vid": 6252,
      "wd": 6253,
      "Match": 6254,
      "uration": 6255,
      "1\"": 6256,
      "%0": 6257,
      "ND": 6258,
      "cmd_": 6259,
      "ÄÄÄÄÄÄforÄ": 6260,
      "ast_": 6261,
      "mis": 6262,
      "angle": 6263,
      "\"Un": 6264,
      "_list": 6265,
      "\"P": 6266,
      "Def": 6267,
      "EN_": 6268,
      "SIG": 6269,
      "CS": 6270,
      "bb": 6271,
      "ment_": 6272,
      "Multi": 6273,
      "fmt": 6274,
      "ContextÄ": 6275,
      "Pointer": 6276,
      "Msg": 6277,
      "\"[": 6278,
      "ÄÄÄÄfor": 6279,
      "older": 6280,
      "TEXT": 6281,
      "ASE": 6282,
      "fc": 6283,
      "decl": 6284,
      "UNU": 6285,
      "ATH": 6286,
      "Äitem": 6287,
      "UI": 6288,
      "pt_": 6289,
      "Del": 6290,
      "bind": 6291,
      "selection": 6292,
      "ÄwhileÄ": 6293,
      "tok": 6294,
      "png_": 6295,
      "blk": 6296,
      "flow": 6297,
      "tk_tree_": 6298,
      "ber_": 6299,
      "constÄstd": 6300,
      "onÄ": 6301,
      "wra": 6302,
      "ard_": 6303,
      "sp_": 6304,
      "_init": 6305,
      "cope": 6306,
      "ill": 6307,
      "_T": 6308,
      "ÄÄÄÄm": 6309,
      "FS_": 6310,
      "dbg": 6311,
      "user_data": 6312,
      "request_": 6313,
      "reset": 6314,
      "ifdefÄ": 6315,
      "sys": 6316,
      "pg": 6317,
      "ÄGT": 6318,
      "Äwindow": 6319,
      "Ä9": 6320,
      "Pixel": 6321,
      "Cont": 6322,
      "ÄÄÄÄg_": 6323,
      "CHECK": 6324,
      "_SET": 6325,
      "Copy": 6326,
      "Ätime": 6327,
      "1000": 6328,
      "vtk": 6329,
      "cy": 6330,
      "one_": 6331,
      "parser": 6332,
      "constÄstructÄ": 6333,
      "block_": 6334,
      "entries": 6335,
      "ÄÄÄÄÄÄÄÄelse": 6336,
      "Äsc": 6337,
      "CP": 6338,
      "destroy": 6339,
      "AGE": 6340,
      "pol": 6341,
      "_CHEC": 6342,
      "Äg_strdup": 6343,
      "We": 6344,
      "Empty": 6345,
      "hist": 6346,
      "--------": 6347,
      "tity": 6348,
      "z_": 6349,
      "uri": 6350,
      "Mon": 6351,
      "Äframe": 6352,
      "ACH": 6353,
      "By": 6354,
      "LL_": 6355,
      "REG_": 6356,
      "dw": 6357,
      "LIST": 6358,
      "met": 6359,
      "river": 6360,
      "UE_": 6361,
      "USE_": 6362,
      "lk": 6363,
      "ÄSE": 6364,
      "Find": 6365,
      "ÄÄÄÄÄÄÄÄreturnÄ0": 6366,
      "field_": 6367,
      "redÄ": 6368,
      "ateg": 6369,
      "ÄÄt": 6370,
      "Exception": 6371,
      "tv_": 6372,
      "'\\n'": 6373,
      "ternal": 6374,
      "Ächar": 6375,
      "ÄÄg_": 6376,
      "json": 6377,
      "const_": 6378,
      "ializ": 6379,
      "asi": 6380,
      "assert_": 6381,
      "of_": 6382,
      "mple_": 6383,
      "ÄÄÄÄÄÄÄÄreturnÄNULL": 6384,
      "result_": 6385,
      "warn": 6386,
      "ity_": 6387,
      "34": 6388,
      "alpha": 6389,
      "dom": 6390,
      "Äac": 6391,
      "usage": 6392,
      "nown": 6393,
      "Send": 6394,
      "dialog": 6395,
      "total": 6396,
      "CODE": 6397,
      "DIS": 6398,
      "ÄÄÄÄintÄi": 6399,
      "ÄÄÄÄÄÄÄÄÄÄifÄ": 6400,
      "ÄÄÄÄÄÄÄÄÄÄÄÄÄÄÄÄreturnÄ": 6401,
      "doÄ": 6402,
      "ear": 6403,
      "fl": 6404,
      "Mask": 6405,
      "END_": 6406,
      "_block": 6407,
      "Äelse": 6408,
      "ull_": 6409,
      "info_": 6410,
      "PTR": 6411,
      "null": 6412,
      ":Ä%s\\n\"": 6413,
      "psz": 6414,
      "CHECK_": 6415,
      "ifÄdefined": 6416,
      "Äcan": 6417,
      "tableÄ": 6418,
      "ape": 6419,
      "ÄÄÄÄQ": 6420,
      "delta": 6421,
      "ÄxÄ": 6422,
      "PH": 6423,
      "dition": 6424,
      "if_": 6425,
      "tile": 6426,
      "socket": 6427,
      "NUM_": 6428,
      "gest": 6429,
      "LÄ": 6430,
      "LED": 6431,
      "BOO": 6432,
      "has": 6433,
      "metho": 6434,
      "si_": 6435,
      "exception": 6436,
      "uncÄ": 6437,
      "PÄ": 6438,
      "ARE": 6439,
      "ENTR": 6440,
      "BUF": 6441,
      "title": 6442,
      "arg_": 6443,
      "scale": 6444,
      "ont_": 6445,
      "play": 6446,
      "_from_": 6447,
      "able_": 6448,
      "Ädst": 6449,
      "min_": 6450,
      "nv": 6451,
      "All": 6452,
      "rc_": 6453,
      "Äpriv": 6454,
      "cv": 6455,
      "for_": 6456,
      "suc": 6457,
      "Struct": 6458,
      "arr": 6459,
      "Tex": 6460,
      "Gener": 6461,
      "ÄÄÄÄfprintf": 6462,
      "pdev": 6463,
      "802": 6464,
      "ints": 6465,
      "sent": 6466,
      "font": 6467,
      "bus": 6468,
      "exist": 6469,
      "VE_": 6470,
      "BLOCK": 6471,
      "header_": 6472,
      "RITE": 6473,
      "_pool": 6474,
      "_ptrÄ": 6475,
      "ÄÄÄÄÄÄÄÄÄÄÄÄÄÄÄÄÄÄÄÄÄÄÄÄifÄ": 6476,
      "sql_": 6477,
      "Äun": 6478,
      "ÄÄÄÄÄÄif": 6479,
      "Ext": 6480,
      "pub": 6481,
      "usb_": 6482,
      "ITE": 6483,
      "hy": 6484,
      "ark": 6485,
      "SA": 6486,
      "ARRAY": 6487,
      "ÄÄs": 6488,
      "Sto": 6489,
      "_pr": 6490,
      "System": 6491,
      "uintÄ": 6492,
      "td": 6493,
      "noÄ": 6494,
      "extension": 6495,
      "active_": 6496,
      "extra": 6497,
      "setting": 6498,
      "IST": 6499,
      "sqlite": 6500,
      "modu": 6501,
      "atom": 6502,
      "86": 6503,
      "rl": 6504,
      "bytesÄ": 6505,
      "ÄÄÄÄsize_tÄ": 6506,
      "origin": 6507,
      "_STATE_": 6508,
      "stmt": 6509,
      "Version": 6510,
      "ÄÄstd": 6511,
      "hex": 6512,
      "scriptor": 6513,
      "instance": 6514,
      "Iterator": 6515,
      "rx": 6516,
      "ss_": 6517,
      "ÄÄÄÄÄÄÄÄconstÄ": 6518,
      "Äimage": 6519,
      "_St": 6520,
      "link_": 6521,
      "sid": 6522,
      "Dire": 6523,
      "g_return_val_if_failÄ": 6524,
      "foundÄ": 6525,
      "Column": 6526,
      "Cap": 6527,
      "tial": 6528,
      "pend": 6529,
      "ics": 6530,
      "tls_": 6531,
      "Filter": 6532,
      "Src": 6533,
      "itemÄ": 6534,
      "filter_": 6535,
      "Äsq": 6536,
      "_pack": 6537,
      "Regist": 6538,
      "\"\\n": 6539,
      "QUE": 6540,
      "ring": 6541,
      "chun": 6542,
      "fg": 6543,
      "mutex_unlock": 6544,
      "CM": 6545,
      "Lin": 6546,
      "intÄÄ": 6547,
      "ÄCON": 6548,
      "_CALL": 6549,
      "_frame": 6550,
      "iss": 6551,
      "'Ä'": 6552,
      "BUFFER": 6553,
      "Settings": 6554,
      "dout": 6555,
      "Options": 6556,
      "ÄMAX": 6557,
      "full": 6558,
      "msgÄ": 6559,
      "Priv": 6560,
      "uÄ": 6561,
      "rot": 6562,
      "der": 6563,
      "Connection": 6564,
      "trace": 6565,
      "class_": 6566,
      "query_": 6567,
      "mit": 6568,
      "FileÄ": 6569,
      "ut_": 6570,
      "Äcmd": 6571,
      "ntÄ": 6572,
      "\"%s:Ä": 6573,
      "df": 6574,
      "readÄ": 6575,
      "retvalÄ": 6576,
      "png_ptr": 6577,
      "creen": 6578,
      "zero": 6579,
      "Desc": 6580,
      "Arra": 6581,
      "PFN": 6582,
      "AST_": 6583,
      "opt_": 6584,
      "Äevent": 6585,
      "\"(": 6586,
      "setup": 6587,
      "\\r": 6588,
      "Äwx": 6589,
      "returnÄFALSE": 6590,
      "\"in": 6591,
      "GTH": 6592,
      "bytes_": 6593,
      "tool": 6594,
      "abel": 6595,
      "snd_": 6596,
      "reg_": 6597,
      "_SP": 6598,
      "_SY": 6599,
      "Pri": 6600,
      "board": 6601,
      "mg": 6602,
      "_SC": 6603,
      "XML": 6604,
      "gno": 6605,
      "verbo": 6606,
      "ÄY": 6607,
      "pret_": 6608,
      "prog": 6609,
      "interpret_": 6610,
      "ÄitÄ": 6611,
      "WRITE": 6612,
      "allocÄ": 6613,
      "TY_": 6614,
      ":\"": 6615,
      "ÄlenÄ": 6616,
      "ItemÄ": 6617,
      "nr": 6618,
      "ump": 6619,
      "sure": 6620,
      "main_": 6621,
      "model_": 6622,
      "dl": 6623,
      "ildÄ": 6624,
      "coutÄ": 6625,
      "ipÄ": 6626,
      "ule": 6627,
      "MT_": 6628,
      "names": 6629,
      "release": 6630,
      "parse_": 6631,
      "uint16_tÄ": 6632,
      "Dlg": 6633,
      "gl_": 6634,
      "lines": 6635,
      "location": 6636,
      "heap": 6637,
      "ori": 6638,
      "ÄGST_": 6639,
      "MPLE": 6640,
      "rep": 6641,
      "ck_": 6642,
      "TRAN": 6643,
      "quo": 6644,
      "s2": 6645,
      "Sw": 6646,
      "Äaddr": 6647,
      "Äfilename": 6648,
      "\"Faile": 6649,
      "ns_": 6650,
      "LINE_": 6651,
      ",Ä\"": 6652,
      "_port": 6653,
      "PFNGL": 6654,
      "headÄ": 6655,
      "files": 6656,
      ":Ä\"Ä": 6657,
      "ele": 6658,
      "pace": 6659,
      "ailable": 6660,
      "g_return_if_failÄ": 6661,
      "GI": 6662,
      "\".": 6663,
      "endifÄÄÄÄ": 6664,
      "OBJECT_": 6665,
      "tm": 6666,
      "Texture": 6667,
      "Queue": 6668,
      "ÄconstÄÄ": 6669,
      "rq": 6670,
      "UND": 6671,
      "_COL": 6672,
      "firstÄ": 6673,
      "initializ": 6674,
      "_PAR": 6675,
      "====": 6676,
      "argument": 6677,
      "Äfailed": 6678,
      "Ge": 6679,
      "opts": 6680,
      "Mod": 6681,
      "lassÄ": 6682,
      "chip": 6683,
      "Rel": 6684,
      "WÄ": 6685,
      "append_": 6686,
      "_func_": 6687,
      "LINE": 6688,
      "Bar": 6689,
      "domain": 6690,
      "ssl": 6691,
      "WINDO": 6692,
      "Or": 6693,
      "stra": 6694,
      "mail": 6695,
      "\"Error": 6696,
      "CC": 6697,
      "color_": 6698,
      "Sample": 6699,
      "BL": 6700,
      "COL": 6701,
      "allow": 6702,
      "RD": 6703,
      "bc": 6704,
      "Z_": 6705,
      "00000000": 6706,
      "FLAG_": 6707,
      "Ämax_": 6708,
      "Query": 6709,
      "okÄ": 6710,
      "ÄÄÄÄÄÄÄÄÄÄÄÄÄÄÄÄÄÄÄÄÄÄÄÄÄÄÄÄÄÄÄÄÄÄ": 6711,
      "DBG": 6712,
      "ÄÄÄÄswitchÄ": 6713,
      "box_": 6714,
      "Env": 6715,
      "save_": 6716,
      "non": 6717,
      "enter": 6718,
      "transaction": 6719,
      "MAP": 6720,
      "colum": 6721,
      "uff": 6722,
      "_cli": 6723,
      "SW": 6724,
      "align": 6725,
      "WARNING": 6726,
      "MSG_": 6727,
      "ÄImGui": 6728,
      "YP": 6729,
      "MENU": 6730,
      "NV": 6731,
      "PtrÄ": 6732,
      "ÄÄÄÄreturnÄfalse": 6733,
      "DU": 6734,
      "remove_": 6735,
      "Close": 6736,
      "ÄÄreturnÄ0": 6737,
      "global": 6738,
      "metadata": 6739,
      "high": 6740,
      "Ämalloc": 6741,
      "istr": 6742,
      "indÄ": 6743,
      "RGB": 6744,
      "intÄn": 6745,
      "total_": 6746,
      "intÄret": 6747,
      "LOCK_": 6748,
      "ndef": 6749,
      "adÄ": 6750,
      "gst_": 6751,
      "ge_": 6752,
      "versionÄ": 6753,
      "Bytes": 6754,
      "Tab": 6755,
      "rk": 6756,
      "base_": 6757,
      "Äcinfo": 6758,
      "VO": 6759,
      "HTT": 6760,
      "uldÄnotÄ": 6761,
      "Handler": 6762,
      "ÄÄÄÄelseÄ": 6763,
      "77": 6764,
      "Äcpu": 6765,
      "LY": 6766,
      "j_": 6767,
      "ÄÄÄÄÄÄÄÄm_": 6768,
      "gi": 6769,
      "Assert": 6770,
      "dio_": 6771,
      "detail": 6772,
      "game": 6773,
      "ef": 6774,
      "ZE_": 6775,
      "Ini": 6776,
      "rop": 6777,
      "ÄÄÄÄÄÄreturn": 6778,
      "texture": 6779,
      "pay": 6780,
      "Äentry": 6781,
      "rate": 6782,
      "ceive": 6783,
      "json_": 6784,
      "ÄÄelseÄifÄ": 6785,
      "ÄÄÄÄÄÄÄÄÄÄÄÄÄÄÄÄÄÄÄÄÄÄÄÄÄÄÄÄÄÄÄÄÄÄÄÄÄÄÄÄÄÄÄÄÄÄÄÄ": 6786,
      "'/": 6787,
      "ÄÄÄÄÄÄÄÄÄÄÄÄÄÄÄÄÄÄÄÄÄÄÄÄÄÄÄÄÄÄÄÄÄÄÄ": 6788,
      "formatÄ": 6789,
      "SL": 6790,
      "Destroy": 6791,
      "UNK": 6792,
      "PRI": 6793,
      "ÄÄÄÄÄÄelse": 6794,
      "iterÄ": 6795,
      "Module": 6796,
      "0.": 6797,
      "quence": 6798,
      "Äfail": 6799,
      "Addr": 6800,
      "body": 6801,
      "NAL": 6802,
      "endl": 6803,
      "be_": 6804,
      "ÄÄÄÄdefault": 6805,
      "argÄ": 6806,
      "sci": 6807,
      "leftÄ": 6808,
      "sing": 6809,
      "Wa": 6810,
      "bg": 6811,
      "Label": 6812,
      "dir_": 6813,
      "ÄÄÄÄÄÄÄÄÄÄÄÄif": 6814,
      "eature": 6815,
      "storage": 6816,
      "Äcp": 6817,
      "transp": 6818,
      "content": 6819,
      "ÄÄÄÄt": 6820,
      "ÄÄÄÄn": 6821,
      "gboolean": 6822,
      "colÄ": 6823,
      "interpret_cast": 6824,
      "DATA_": 6825,
      "xp": 6826,
      "ifndef": 6827,
      "Task": 6828,
      "lobal_": 6829,
      "%02": 6830,
      "tmp_": 6831,
      "My": 6832,
      "slo": 6833,
      "builder": 6834,
      "IO_": 6835,
      "proc": 6836,
      "\"%sÄ": 6837,
      "Cursor": 6838,
      "by_": 6839,
      "leg": 6840,
      "Stack": 6841,
      "LENGTH": 6842,
      "ET_": 6843,
      "region": 6844,
      "message_": 6845,
      "33": 6846,
      "509": 6847,
      "ryp": 6848,
      "lection": 6849,
      "Äsk": 6850,
      "gin_": 6851,
      "Äen": 6852,
      "Fir": 6853,
      "target_": 6854,
      "ript": 6855,
      "Ämem": 6856,
      "pointer": 6857,
      "compare": 6858,
      "ENOMEM": 6859,
      "cho": 6860,
      "ECT": 6861,
      "spÄ": 6862,
      "dk": 6863,
      "ÄtheÄ": 6864,
      "Flags": 6865,
      "5Ä": 6866,
      "vm_": 6867,
      "gchar": 6868,
      "build_": 6869,
      "response": 6870,
      "_Set": 6871,
      "dt": 6872,
      "ession": 6873,
      "register_": 6874,
      "keys": 6875,
      "ÄÄASSERT_": 6876,
      "AM_": 6877,
      "abc": 6878,
      "READ_": 6879,
      "wpa": 6880,
      "AN_": 6881,
      "Ädouble": 6882,
      "Bool": 6883,
      "rid": 6884,
      "chain": 6885,
      "ÄyÄ": 6886,
      "oryÄ": 6887,
      "regs": 6888,
      "ÄH5": 6889,
      "ÄunsignedÄintÄ": 6890,
      "ÄÄÄÄelseÄÄÄÄ": 6891,
      "Can": 6892,
      "gx_": 6893,
      "clo": 6894,
      "CODE_": 6895,
      "complete": 6896,
      "Ärc": 6897,
      "Params": 6898,
      "ender": 6899,
      "ÄretÄ": 6900,
      "_point": 6901,
      "Tim": 6902,
      "BufferÄ": 6903,
      "gui": 6904,
      "sh_": 6905,
      "iff": 6906,
      "TX": 6907,
      "err_": 6908,
      "_free_": 6909,
      "codec": 6910,
      "ResultÄ": 6911,
      "Änext": 6912,
      "image_": 6913,
      "host_": 6914,
      "INF": 6915,
      "tm_": 6916,
      "ASH": 6917,
      "ÄÄintÄi": 6918,
      "ÄÄÄÄprintf": 6919,
      "coder": 6920,
      "items": 6921,
      "u16": 6922,
      "mc": 6923,
      "_STRING": 6924,
      "DF": 6925,
      "light": 6926,
      "dedÄ": 6927,
      "eff": 6928,
      "dump_": 6929,
      "LengthÄ": 6930,
      "insn": 6931,
      "tf": 6932,
      "feren": 6933,
      "U_": 6934,
      ".0Ä": 6935,
      "Graph": 6936,
      "Ämy": 6937,
      "wordÄ": 6938,
      "\"N": 6939,
      "\\\"%s\\\"": 6940,
      "MAR": 6941,
      "Äpng_": 6942,
      "flagÄ": 6943,
      "agick": 6944,
      "Exten": 6945,
      "Uni": 6946,
      "Äsn": 6947,
      "process": 6948,
      "cm_": 6949,
      "Äpage": 6950,
      ">\"": 6951,
      "Ämp": 6952,
      "SQL": 6953,
      "ouse": 6954,
      "Exec": 6955,
      "skb": 6956,
      "vs_": 6957,
      "\"%s\"": 6958,
      "I2": 6959,
      "TRACE": 6960,
      "Ägl": 6961,
      "pop": 6962,
      "Edge": 6963,
      "os_": 6964,
      "diff": 6965,
      "stanceÄ": 6966,
      "NT": 6967,
      "Äinput": 6968,
      "vertex": 6969,
      "Cmd": 6970,
      "oid": 6971,
      "22": 6972,
      "64Ä": 6973,
      "spaceÄ": 6974,
      "_CL": 6975,
      "rd_": 6976,
      "stant": 6977,
      "work_": 6978,
      "fd_": 6979,
      "Track": 6980,
      "bot": 6981,
      "Active": 6982,
      "ant_": 6983,
      "ORT_": 6984,
      "_base": 6985,
      "reser": 6986,
      "Sec": 6987,
      "Head": 6988,
      "lastÄ": 6989,
      "Äat": 6990,
      "FlagsÄ": 6991,
      "GF_": 6992,
      "VERSION": 6993,
      "ÄÄÄÄreturnÄNULL": 6994,
      "a\"": 6995,
      "eventÄ": 6996,
      "90": 6997,
      "writ": 6998,
      "ÄÄÄÄb": 6999,
      "suppor": 7000,
      "g_free": 7001,
      "Äca": 7002,
      "CH_": 7003,
      "Mu": 7004,
      "mapp": 7005,
      "socket_": 7006,
      "privÄ": 7007,
      "Spec": 7008,
      "col_": 7009,
      "PS": 7010,
      "Ste": 7011,
      "RESUL": 7012,
      "Äfd": 7013,
      "Main": 7014,
      "struction": 7015,
      "fields": 7016,
      "ref_": 7017,
      "Ärow": 7018,
      "ject": 7019,
      "es_": 7020,
      "ensor": 7021,
      "_params": 7022,
      "Method": 7023,
      "sty": 7024,
      "6Ä": 7025,
      "conver": 7026,
      "ak": 7027,
      "Dialog": 7028,
      "NC": 7029,
      "ations": 7030,
      "Left": 7031,
      "ÄgotoÄ": 7032,
      "step": 7033,
      "Inst": 7034,
      "cell": 7035,
      "dere": 7036,
      "move_": 7037,
      "Ä20": 7038,
      "no_": 7039,
      "MÄ": 7040,
      "Pool": 7041,
      "asÄ": 7042,
      "ÄÄÄÄD": 7043,
      "ures": 7044,
      "activ": 7045,
      "_bit": 7046,
      "gs": 7047,
      "sql": 7048,
      "numberÄ": 7049,
      "88": 7050,
      "store_": 7051,
      "ÄÄÄÄS": 7052,
      "MAT_": 7053,
      "resol": 7054,
      "Socket": 7055,
      "BUTT": 7056,
      "ÄÄÄÄfree": 7057,
      "np": 7058,
      "ÄreturnÄ0": 7059,
      "NÄ": 7060,
      "tal": 7061,
      "UTF": 7062,
      "rule": 7063,
      "gc": 7064,
      "reate_": 7065,
      "verse": 7066,
      "MSG": 7067,
      "ise": 7068,
      "de_": 7069,
      "%[": 7070,
      "angu": 7071,
      "an_": 7072,
      "ÄÄÄÄÄÄÄÄÄÄÄÄÄÄÄÄÄÄÄÄÄÄÄÄÄÄÄÄÄÄÄÄÄÄÄÄÄÄÄÄÄÄÄÄ": 7073,
      "just": 7074,
      "inser": 7075,
      "Äformat": 7076,
      "ÄÄÄÄassert": 7077,
      "tag_": 7078,
      "Py_": 7079,
      "AF": 7080,
      "%x": 7081,
      "Icon": 7082,
      "Ä%sÄ": 7083,
      "STRING": 7084,
      "Append": 7085,
      "OS": 7086,
      "xx": 7087,
      "mutex_lock": 7088,
      "Ästring": 7089,
      "lik": 7090,
      "anguage": 7091,
      "ctx_": 7092,
      "ORT": 7093,
      "hashÄ": 7094,
      "sel": 7095,
      "OPEN": 7096,
      "ORE_": 7097,
      "Release": 7098,
      "Äsz": 7099,
      "regÄ": 7100,
      "ORM": 7101,
      "Remove": 7102,
      "mt_": 7103,
      "INDE": 7104,
      "FIG_": 7105,
      "Ä255": 7106,
      "dat": 7107,
      "ords": 7108,
      "OUR": 7109,
      "OPT_": 7110,
      "pthread_": 7111,
      "BITS": 7112,
      "BÄ": 7113,
      "form_": 7114,
      "ster_": 7115,
      "UPPOR": 7116,
      "ICE_": 7117,
      "Älo": 7118,
      "Edit": 7119,
      "\",": 7120,
      "anel": 7121,
      "INVALID": 7122,
      "ÄÄÄÄautoÄ": 7123,
      "_cpu": 7124,
      "Idx": 7125,
      "Transform": 7126,
      "lyÄ": 7127,
      "Elem": 7128,
      "strcasecmp": 7129,
      "Return": 7130,
      "ÄÄÄÄÄÄÄÄreturnÄfalse": 7131,
      "chema": 7132,
      "common": 7133,
      "AST": 7134,
      "APP": 7135,
      "cntÄ": 7136,
      "23": 7137,
      "reply": 7138,
      "Date": 7139,
      "Ärange": 7140,
      "addr_": 7141,
      "prefix": 7142,
      "rvÄ": 7143,
      "ÄÄÄÄconstÄcharÄ": 7144,
      "ART": 7145,
      "floatÄ": 7146,
      "bio": 7147,
      "ERÄ": 7148,
      "soap": 7149,
      "AR_": 7150,
      "Norm": 7151,
      "Ne": 7152,
      "ÄGTK_": 7153,
      "DS": 7154,
      "EntryÄ": 7155,
      "ely": 7156,
      "INIT": 7157,
      "Äport": 7158,
      "Link": 7159,
      "Inte": 7160,
      "flush": 7161,
      "ssl_": 7162,
      "Save": 7163,
      "ÄÄÄÄÄÄintÄ": 7164,
      "Symbol": 7165,
      "phy": 7166,
      "Display": 7167,
      "\"p": 7168,
      "gtk_widget_": 7169,
      "ÄÄÄÄÄÄÄÄÄÄÄÄÄÄÄÄÄÄÄÄÄÄÄÄÄÄÄÄÄÄÄ": 7170,
      "om": 7171,
      "SION_": 7172,
      "Äconfig": 7173,
      "Äio": 7174,
      "rev": 7175,
      "ches": 7176,
      "ÄÄÄÄint": 7177,
      "ULTI": 7178,
      "_func__": 7179,
      "useÄ": 7180,
      "UAL": 7181,
      "EVENT_": 7182,
      "tach": 7183,
      "GtkTree": 7184,
      "Äbit": 7185,
      "ank": 7186,
      "ACK_": 7187,
      "gintÄ": 7188,
      "unsignedÄint": 7189,
      "ASE_": 7190,
      "Ali": 7191,
      "disable": 7192,
      "seek": 7193,
      "htÄ": 7194,
      "sector": 7195,
      "CI": 7196,
      "UNUSED": 7197,
      "Äfp": 7198,
      "plan": 7199,
      "Audio": 7200,
      "DEFAULT_": 7201,
      "command_": 7202,
      "Long": 7203,
      "GtkWidgetÄ": 7204,
      "v4": 7205,
      "Wr": 7206,
      "]Ä": 7207,
      "ÄÄÄÄÄÄÄÄÄÄÄÄÄÄÄÄÄÄÄÄifÄ": 7208,
      "sli": 7209,
      "NEL": 7210,
      "ÄÄEXPECT_EQ": 7211,
      "filenameÄ": 7212,
      "FileName": 7213,
      "sit": 7214,
      "blockÄ": 7215,
      "VERIF": 7216,
      "conf_": 7217,
      "minÄ": 7218,
      "First": 7219,
      "LIB": 7220,
      "ply_": 7221,
      "fore": 7222,
      "_per": 7223,
      "BOOL": 7224,
      "tv": 7225,
      "ArrayÄ": 7226,
      "ÄÄÄÄchar": 7227,
      "types": 7228,
      "\"Can": 7229,
      "96": 7230,
      "fixÄ": 7231,
      "ÄÄÄÄreturnÄtrue": 7232,
      "tagÄ": 7233,
      "'%s'": 7234,
      "NG_": 7235,
      "note": 7236,
      "EXT_": 7237,
      "mm_": 7238,
      "Ä0x1": 7239,
      "Register": 7240,
      "Tuple": 7241,
      "ÄÄÄÄh": 7242,
      "monitor": 7243,
      "IX": 7244,
      "card": 7245,
      "Ä4Ä": 7246,
      "Äcolor": 7247,
      "OM": 7248,
      "int64_tÄ": 7249,
      "IG_": 7250,
      "Global": 7251,
      "prop": 7252,
      "ÄÄÄÄreturnÄ1": 7253,
      "Player": 7254,
      "LEM": 7255,
      "Äoff": 7256,
      "ÄÄÄÄÄÄÄÄÄÄÄÄforÄ": 7257,
      "sur": 7258,
      "ÄÄf": 7259,
      "MAN": 7260,
      "vir": 7261,
      "termin": 7262,
      "Äwor": 7263,
      "logÄ": 7264,
      "_pÄ": 7265,
      "Top": 7266,
      "Sign": 7267,
      "alog_": 7268,
      "memory_": 7269,
      "Äattr": 7270,
      "nb": 7271,
      "forea": 7272,
      "counter": 7273,
      "Ätext": 7274,
      "ver_": 7275,
      "WOR": 7276,
      "Session": 7277,
      "dbus_": 7278,
      "curr": 7279,
      "by": 7280,
      "FREE": 7281,
      "Has": 7282,
      "fill": 7283,
      "stride": 7284,
      "system": 7285,
      "messageÄ": 7286,
      "_be": 7287,
      "Ä0x3": 7288,
      "Äip": 7289,
      "with_": 7290,
      "ident": 7291,
      "Tool": 7292,
      "istÄ": 7293,
      "call_": 7294,
      "ÄÄÄÄÄÄÄÄÄÄÄÄÄÄÄÄÄÄÄÄÄÄÄÄÄÄÄÄÄÄÄÄÄÄÄÄÄÄÄÄÄÄ": 7295,
      "nodes": 7296,
      "Extension": 7297,
      "timer_": 7298,
      "dent": 7299,
      "cp_": 7300,
      "\\\"Ä": 7301,
      "_flagsÄ": 7302,
      "enabled": 7303,
      "Si": 7304,
      "ROW": 7305,
      "ls_": 7306,
      "VM": 7307,
      "layout": 7308,
      "AS_": 7309,
      "wer": 7310,
      "dict_": 7311,
      "ÄÄÄÄÄÄÄÄf": 7312,
      "objÄ": 7313,
      "ÄMAX_": 7314,
      "Äcurrent": 7315,
      "defineÄ": 7316,
      "Factor": 7317,
      "mid": 7318,
      "en_": 7319,
      "xml_": 7320,
      "order_": 7321,
      "me_": 7322,
      "ar_": 7323,
      "Äold": 7324,
      "Äuint32_tÄ": 7325,
      "im_": 7326,
      "!\"": 7327,
      "PUT_": 7328,
      "Ädir": 7329,
      "bd": 7330,
      "staticÄvoid": 7331,
      "48": 7332,
      "aren": 7333,
      "iro": 7334,
      "pw": 7335,
      "term": 7336,
      "EXIT_": 7337,
      "GD": 7338,
      "CUR": 7339,
      "Bits": 7340,
      "Io": 7341,
      "IFT": 7342,
      "COMP": 7343,
      "Äme": 7344,
      "Move": 7345,
      "lette": 7346,
      "video": 7347,
      "addressÄ": 7348,
      "lx": 7349,
      "cept": 7350,
      "arrayÄ": 7351,
      "Äno": 7352,
      "AÄ": 7353,
      "Cell": 7354,
      "res_": 7355,
      "drv": 7356,
      "ART_": 7357,
      "Layer": 7358,
      "Äreq": 7359,
      "'/'": 7360,
      "IGH": 7361,
      "ward": 7362,
      "Äcontext": 7363,
      "CF": 7364,
      "tw": 7365,
      "ep_": 7366,
      "ouble": 7367,
      "handle_": 7368,
      "PRINT": 7369,
      "_CHECK": 7370,
      "mpÄ": 7371,
      "unref": 7372,
      "Äne": 7373,
      "Game": 7374,
      "atter": 7375,
      "retval": 7376,
      "_cb": 7377,
      "classÄ": 7378,
      "RETURN": 7379,
      "FX": 7380,
      "NT_": 7381,
      "FIEL": 7382,
      "iesÄ": 7383,
      "ÄÄÄreturnÄ": 7384,
      "MD_": 7385,
      "Port": 7386,
      "dns_": 7387,
      "pci_": 7388,
      "emit_": 7389,
      "trl": 7390,
      "TEXT_": 7391,
      "cancel": 7392,
      "ene": 7393,
      "view_": 7394,
      "define": 7395,
      "ciph": 7396,
      "ÄÄ_": 7397,
      "yph": 7398,
      "BUS_": 7399,
      "Ädest": 7400,
      "Äiter": 7401,
      "book": 7402,
      "invalid": 7403,
      "show_": 7404,
      "ano": 7405,
      "api": 7406,
      "Älast": 7407,
      "lace": 7408,
      "member": 7409,
      "vl": 7410,
      "wait_": 7411,
      "Fo": 7412,
      "headerÄ": 7413,
      "Ä0x7": 7414,
      "pper": 7415,
      "perty_": 7416,
      "layÄ": 7417,
      "perties": 7418,
      "usb": 7419,
      "Contain": 7420,
      "DMA": 7421,
      "spin_unlock": 7422,
      "ary_": 7423,
      "Ätarget": 7424,
      "verÄ": 7425,
      "date": 7426,
      "'.": 7427,
      "hp": 7428,
      "atorÄ": 7429,
      "(%s": 7430,
      "Ätable": 7431,
      "Äcontinue": 7432,
      "module_": 7433,
      "path_": 7434,
      "Ätoken": 7435,
      "xy_": 7436,
      "Äparent": 7437,
      "VIE": 7438,
      "open_": 7439,
      "mount": 7440,
      "PI_": 7441,
      "feature": 7442,
      "Parent": 7443,
      "staticÄvoidÄÄ": 7444,
      "Äopt": 7445,
      "ÄÄelse": 7446,
      "1.": 7447,
      "sho": 7448,
      "osÄ": 7449,
      "ype": 7450,
      "respon": 7451,
      "\"B": 7452,
      "sys_": 7453,
      "GEN": 7454,
      "here": 7455,
      "FT": 7456,
      "OBJECT": 7457,
      "_put": 7458,
      "encode": 7459,
      "ÄSC": 7460,
      "volume": 7461,
      "u8Ä": 7462,
      "display_": 7463,
      "raw_": 7464,
      "ical": 7465,
      "Ästatus": 7466,
      "part": 7467,
      "core_": 7468,
      "shortÄ": 7469,
      "Over": 7470,
      "trace_": 7471,
      "dc": 7472,
      "itch": 7473,
      "combo": 7474,
      "interp": 7475,
      "pb": 7476,
      "resour": 7477,
      "ÄÄÄÄÄÄÄÄstd": 7478,
      "\"b": 7479,
      "LenÄ": 7480,
      "ified": 7481,
      "likely": 7482,
      "ÄÄÄÄEXPECT_": 7483,
      "gen_": 7484,
      "Render": 7485,
      "argsÄ": 7486,
      "com_": 7487,
      "wsg": 7488,
      "variable": 7489,
      "SS_": 7490,
      "OT": 7491,
      "\"\\t": 7492,
      "GU": 7493,
      "repo": 7494,
      "PE": 7495,
      "ÄÄÄÄÄÄÄÄwhileÄ": 7496,
      "\"r": 7497,
      "Bound": 7498,
      "ÄconstÄchar": 7499,
      "_parse_": 7500,
      "que_": 7501,
      "Clear": 7502,
      "x2": 7503,
      "PK": 7504,
      "ssÄ": 7505,
      "CALL": 7506,
      "Sho": 7507,
      "ave": 7508,
      "button_": 7509,
      "AILED": 7510,
      "SUCCESS": 7511,
      "decode": 7512,
      "thisÄ": 7513,
      "Äheight": 7514,
      "wl": 7515,
      "delay": 7516,
      "War": 7517,
      "Resource": 7518,
      "Ängx_": 7519,
      "FP_": 7520,
      "Star": 7521,
      "child_": 7522,
      "TH_": 7523,
      "dma": 7524,
      "ÄMA": 7525,
      "extr": 7526,
      "PosÄ": 7527,
      "Bin": 7528,
      "Operand": 7529,
      "USER": 7530,
      "_print": 7531,
      "ErrorÄ": 7532,
      "Up": 7533,
      "Äps": 7534,
      "anÄ": 7535,
      "36": 7536,
      "]\"": 7537,
      "statÄ": 7538,
      "ids": 7539,
      "ÄÄÄÄretÄ": 7540,
      "finish": 7541,
      "Ägroup": 7542,
      "errup": 7543,
      "IM": 7544,
      "debug_": 7545,
      "destro": 7546,
      "gotoÄerror": 7547,
      "argcÄ": 7548,
      "Äendl": 7549,
      "group_": 7550,
      "av_": 7551,
      "dst_": 7552,
      "ATTRI": 7553,
      "_to": 7554,
      "g_object_unrefÄ": 7555,
      "2\"": 7556,
      "MEMOR": 7557,
      "shad": 7558,
      "ÄÄÄÄÄÄp": 7559,
      "tick": 7560,
      "ram": 7561,
      "_close": 7562,
      "lass_": 7563,
      "mux": 7564,
      "wal": 7565,
      "Äato": 7566,
      "space_": 7567,
      "glad_": 7568,
      "optionsÄ": 7569,
      "commandÄ": 7570,
      "CK": 7571,
      "Impl": 7572,
      "ANGE": 7573,
      "Änet": 7574,
      "zend_": 7575,
      "tb": 7576,
      "async_": 7577,
      "STE": 7578,
      "foc": 7579,
      "skip": 7580,
      "Record": 7581,
      "Poly": 7582,
      "p2": 7583,
      "formation": 7584,
      "glad_gl": 7585,
      "timestamp": 7586,
      "ority": 7587,
      "ql": 7588,
      "nl": 7589,
      "Ähandle": 7590,
      "Content": 7591,
      "ÄID": 7592,
      "gd": 7593,
      "trÄ": 7594,
      "lash": 7595,
      "ÄÄswitchÄ": 7596,
      "ner_": 7597,
      "alt": 7598,
      "\"D": 7599,
      "TER_": 7600,
      "est": 7601,
      "Ä1000": 7602,
      "VALUE_": 7603,
      "_SER": 7604,
      "umÄ": 7605,
      "ci_": 7606,
      "ÄÄsize_tÄ": 7607,
      "inc": 7608,
      "dic": 7609,
      "Äpr": 7610,
      "lication": 7611,
      "secÄ": 7612,
      "Äidx": 7613,
      "Hel": 7614,
      "LU": 7615,
      "parent_": 7616,
      "usedÄ": 7617,
      "ource": 7618,
      "Äav": 7619,
      "initÄ": 7620,
      "lfw": 7621,
      "etch": 7622,
      "visible": 7623,
      "Ä0xFF": 7624,
      "Äsi": 7625,
      "warning": 7626,
      "kernel": 7627,
      "\\r\\n\"": 7628,
      "cert": 7629,
      "NGX_": 7630,
      "attr_": 7631,
      "i2c_": 7632,
      "pv": 7633,
      "PT_": 7634,
      "%p": 7635,
      "face_": 7636,
      "servi": 7637,
      "Script": 7638,
      "lewInfo": 7639,
      "8x": 7640,
      "FAILURE": 7641,
      "licy": 7642,
      "s1": 7643,
      "ENABLE": 7644,
      "igno": 7645,
      "Ä24": 7646,
      "Ämap": 7647,
      "ilt": 7648,
      "mac_": 7649,
      "\"Co": 7650,
      "cpÄ": 7651,
      "_ea": 7652,
      "_param": 7653,
      "amÄ": 7654,
      "GRO": 7655,
      "_FLA": 7656,
      "GS": 7657,
      "PT": 7658,
      "Ä3Ä": 7659,
      "NODE_": 7660,
      "resize": 7661,
      "ded_": 7662,
      "UNKNO": 7663,
      "BR": 7664,
      "addÄ": 7665,
      "Mesh": 7666,
      "utf8": 7667,
      "'-": 7668,
      "ous": 7669,
      "CÄ": 7670,
      "chunk_": 7671,
      "Äev": 7672,
      "vars": 7673,
      "Äparams": 7674,
      "Ädy": 7675,
      "\"abc": 7676,
      "Pack": 7677,
      "_E": 7678,
      "ÄIN": 7679,
      "edtls_": 7680,
      "ALI": 7681,
      "refs": 7682,
      "pf": 7683,
      "Auto": 7684,
      "mul": 7685,
      "audio": 7686,
      "Äoutput": 7687,
      "img": 7688,
      "_posÄ": 7689,
      "olution": 7690,
      "returnÄTRUE": 7691,
      "isl_": 7692,
      "Ctx": 7693,
      "ser_": 7694,
      "requi": 7695,
      "selec": 7696,
      "PRE": 7697,
      "u64": 7698,
      "prevÄ": 7699,
      "ÄÄÄÄthis": 7700,
      "TIME_": 7701,
      "gf_": 7702,
      "srcÄ": 7703,
      "ÄsizeÄ": 7704,
      "actionÄ": 7705,
      "Magick": 7706,
      "job_": 7707,
      "\"FailedÄtoÄ": 7708,
      "_len": 7709,
      "foo": 7710,
      "video_": 7711,
      "Packet": 7712,
      "Down": 7713,
      "selected": 7714,
      "SR": 7715,
      "F_IN": 7716,
      "Äan": 7717,
      "_SET_": 7718,
      "\"un": 7719,
      "matrix": 7720,
      "ÄÄÄÄÄÄÄÄÄifÄ": 7721,
      "try_": 7722,
      "ÄÄÄÄÄÄÄÄÄÄÄÄreturn": 7723,
      "ADDR": 7724,
      "erase": 7725,
      "Argument": 7726,
      "atedÄ": 7727,
      "01": 7728,
      "ALIG": 7729,
      "global_": 7730,
      "act_": 7731,
      "master": 7732,
      "colorÄ": 7733,
      "leep": 7734,
      "Mouse": 7735,
      "loc_": 7736,
      "comple": 7737,
      "Proc": 7738,
      "tempÄ": 7739,
      "ni": 7740,
      "Äsw": 7741,
      "atch_": 7742,
      "ÄÄÄÄw": 7743,
      "Äif": 7744,
      "OUT_": 7745,
      "TYPEÄ": 7746,
      "ÄÄreturn": 7747,
      "not_": 7748,
      "UInt": 7749,
      "sedÄ": 7750,
      "Äset": 7751,
      "Äwrite": 7752,
      "ÄÄÄÄÄÄÄÄÄÄÄÄÄÄÄÄÄÄÄÄÄÄÄÄÄÄÄÄÄÄÄÄÄÄÄÄÄÄÄÄÄÄÄÄÄÄÄÄÄÄÄÄÄÄÄÄÄÄÄÄÄÄÄÄ": 7753,
      "44": 7754,
      "Äfrom": 7755,
      "dx": 7756,
      "ui_": 7757,
      "owner": 7758,
      "mark_": 7759,
      "cul": 7760,
      "QL": 7761,
      "edit": 7762,
      "mag": 7763,
      "swap": 7764,
      "fb": 7765,
      "NODE": 7766,
      "acc": 7767,
      "METH": 7768,
      "Gst": 7769,
      "Scale": 7770,
      "BIN": 7771,
      "000000": 7772,
      "Double": 7773,
      "Sup": 7774,
      "Äsource": 7775,
      "engine": 7776,
      "IC_": 7777,
      "avail": 7778,
      "pen": 7779,
      "Unit": 7780,
      "Store": 7781,
      "for_ea": 7782,
      "OCKE": 7783,
      "ALLOC": 7784,
      "\\n\\t": 7785,
      "rol": 7786,
      "uccess": 7787,
      "frame_": 7788,
      "ÄStr": 7789,
      "ÄunsignedÄ": 7790,
      "ableÄtoÄ": 7791,
      "oth": 7792,
      "STD_": 7793,
      "syste": 7794,
      "Enabled": 7795,
      "ry": 7796,
      "Ähash": 7797,
      "bitsÄ": 7798,
      "Ord": 7799,
      "ing\"": 7800,
      "split": 7801,
      "ctrl": 7802,
      "Insert": 7803,
      "vis": 7804,
      "offÄ": 7805,
      "}\"": 7806,
      "Root": 7807,
      "HP": 7808,
      "255": 7809,
      "record": 7810,
      "column_": 7811,
      "window_": 7812,
      "mic_": 7813,
      "Temp": 7814,
      "vals": 7815,
      "Coord": 7816,
      "cmdÄ": 7817,
      "activeÄ": 7818,
      "cb_": 7819,
      "ah": 7820,
      "ÄÄÄÄr": 7821,
      "Invalid": 7822,
      "treeÄ": 7823,
      "RIGH": 7824,
      "expected": 7825,
      "oldÄ": 7826,
      "outputÄ": 7827,
      "Äms": 7828,
      "Äle": 7829,
      "mtÄ": 7830,
      "_STATUS_": 7831,
      "ardÄ": 7832,
      "UD": 7833,
      "uti": 7834,
      "ÄÄÄÄF": 7835,
      "aa": 7836,
      "Tri": 7837,
      "linen": 7838,
      "fname": 7839,
      "NAME_": 7840,
      "other": 7841,
      "ML_": 7842,
      "fix_": 7843,
      "Null": 7844,
      "word_": 7845,
      "ÄÄÄÄÄÄÄÄelseÄifÄ": 7846,
      "GTK": 7847,
      "faceÄ": 7848,
      "alize": 7849,
      "plugin": 7850,
      "operand": 7851,
      "handleÄ": 7852,
      "ÄÄÄÄÄÄÄÄÄÄÄÄÄÄÄÄÄÄÄÄÄÄÄÄÄÄÄÄÄ": 7853,
      "87": 7854,
      "reason": 7855,
      "Engin": 7856,
      "Internal": 7857,
      "2D": 7858,
      "disk": 7859,
      "tri": 7860,
      "mov": 7861,
      "select": 7862,
      "Screen": 7863,
      "connect_": 7864,
      "ÄÄÄÄÄifÄ": 7865,
      "krb": 7866,
      "ideo": 7867,
      "CODEÄ": 7868,
      "cha": 7869,
      "GIN": 7870,
      "mk": 7871,
      "this_": 7872,
      "ÄÄÄÄÄÄg_": 7873,
      "Ä102": 7874,
      "35": 7875,
      "select_": 7876,
      "emit": 7877,
      "ÄÄÄÄÄÄÄÄretÄ": 7878,
      "Ämon": 7879,
      "report": 7880,
      "printfÄ": 7881,
      "parentÄ": 7882,
      "TLS_": 7883,
      "FIX": 7884,
      "\"Th": 7885,
      "internal_": 7886,
      "cpl_": 7887,
      "ÄÄc": 7888,
      "MT": 7889,
      "ÄkÄ": 7890,
      "METHO": 7891,
      "ptÄ": 7892,
      "_a": 7893,
      "templ": 7894,
      "ÄCH": 7895,
      "structÄsock": 7896,
      "Storage": 7897,
      "mf": 7898,
      "cairo": 7899,
      "26": 7900,
      "Ädo": 7901,
      "Scan": 7902,
      "fill_": 7903,
      "clude": 7904,
      "SCM_": 7905,
      "sort": 7906,
      "Bind": 7907,
      "Äext": 7908,
      "Ämat": 7909,
      "Pop": 7910,
      "cpyÄ": 7911,
      "openÄ": 7912,
      "_n": 7913,
      "sub_": 7914,
      "radi": 7915,
      "Us": 7916,
      "editor": 7917,
      "endifÄ": 7918,
      "tokenÄ": 7919,
      "ger_": 7920,
      "ename": 7921,
      "cook": 7922,
      "digit": 7923,
      "IP_": 7924,
      "HD": 7925,
      "ÄÄÄÄngx_": 7926,
      "Ä__pyx_": 7927,
      "Äexp": 7928,
      "_v": 7929,
      "Äcurrent_": 7930,
      "ware": 7931,
      "Äsu": 7932,
      "IMA": 7933,
      "ÄÄÄÄÄÄÄÄÄÄÄÄÄÄÄÄÄÄÄÄÄÄÄÄÄÄÄÄÄÄÄÄÄÄÄÄÄ": 7934,
      "atal": 7935,
      "lm": 7936,
      "lockÄ": 7937,
      "tracker": 7938,
      "bucket": 7939,
      "ÄGL_": 7940,
      "topÄ": 7941,
      "indent": 7942,
      "%d,Ä": 7943,
      "_freeÄ": 7944,
      "=Ä%": 7945,
      "Ä256": 7946,
      "dv": 7947,
      "sched": 7948,
      "Ästrerror": 7949,
      "ÄÄÄÄv": 7950,
      "fromÄ": 7951,
      "zer": 7952,
      "DECREF": 7953,
      "numer": 7954,
      "LONG": 7955,
      "ressed": 7956,
      "Äad": 7957,
      "peer": 7958,
      "Äwith": 7959,
      "BUTTON": 7960,
      "payload": 7961,
      "\"g": 7962,
      "PathÄ": 7963,
      "basi": 7964,
      "Ädb": 7965,
      "ÄÄÄintÄ": 7966,
      "Reply": 7967,
      "ÄÄD": 7968,
      "16Ä": 7969,
      "Search": 7970,
      "ground": 7971,
      "dev_priv": 7972,
      "available": 7973,
      "pertyÄ": 7974,
      "tab_": 7975,
      "verti": 7976,
      "ÄGL": 7977,
      "reserve": 7978,
      "Begin": 7979,
      "stdout": 7980,
      "7_": 7981,
      "ÄÄÄÄÄÄÄÄÄÄÄÄÄÄÄÄÄÄÄÄÄÄÄÄÄ": 7982,
      "REAM": 7983,
      "signature": 7984,
      "alig": 7985,
      "_SUB": 7986,
      "Äsd": 7987,
      ".2": 7988,
      "None": 7989,
      "Real": 7990,
      "Äht": 7991,
      "_create": 7992,
      "description": 7993,
      "configÄ": 7994,
      "linkÄ": 7995,
      "umentÄ": 7996,
      "ÄÄfor": 7997,
      "ize": 7998,
      "selfÄ": 7999,
      "channel_": 8000,
      "ÄsÄ": 8001,
      "manager": 8002,
      "alg": 8003,
      "MESS": 8004,
      "Core": 8005,
      "emp": 8006,
      "upÄ": 8007,
      "0\"": 8008,
      "Ter": 8009,
      "pattern": 8010,
      "thresh": 8011,
      "cover": 8012,
      "False": 8013,
      "req_": 8014,
      "tg": 8015,
      "py": 8016,
      "VÄ": 8017,
      "att": 8018,
      "gerÄ": 8019,
      "aly": 8020,
      "GNode": 8021,
      "iteral": 8022,
      "Äsrc_": 8023,
      "Dest": 8024,
      "Space": 8025,
      "shift": 8026,
      "DB_": 8027,
      "ÄÄÄÄstaticÄ": 8028,
      "INIT_": 8029,
      "channels": 8030,
      "player": 8031,
      "80211_": 8032,
      "EM": 8033,
      "app_": 8034,
      "BUG_": 8035,
      "\"w": 8036,
      "gtk_tree_": 8037,
      "ÄintÄn": 8038,
      "ÄÄÄÄÄÄconstÄ": 8039,
      "Äpix": 8040,
      "Äro": 8041,
      "process_": 8042,
      "matri": 8043,
      "Äp_": 8044,
      "calar": 8045,
      "nownÄ": 8046,
      "derer": 8047,
      "fe_": 8048,
      "Wra": 8049,
      "STATE_": 8050,
      "RETURN_": 8051,
      "fprintfÄ": 8052,
      "ARGS": 8053,
      "Mutex": 8054,
      "Video": 8055,
      "Region": 8056,
      "Älog": 8057,
      "TimeÄ": 8058,
      "trig": 8059,
      "uint64_t": 8060,
      "Meta": 8061,
      "Word": 8062,
      "windowÄ": 8063,
      "Ä15": 8064,
      "Äxml": 8065,
      "_PTR": 8066,
      "\"ÄÄÄÄÄÄ": 8067,
      "Ätag": 8068,
      "Ä0x8": 8069,
      "__pyx_t_": 8070,
      "ÄÄvoidÄ": 8071,
      "!\\n\"": 8072,
      "UNI": 8073,
      "afk": 8074,
      "rad": 8075,
      "userÄ": 8076,
      "EC_": 8077,
      "remote": 8078,
      "MAP_": 8079,
      "FD": 8080,
      "IterÄ": 8081,
      "s/": 8082,
      "OffsetÄ": 8083,
      "WRITE_": 8084,
      "ÄÄC": 8085,
      "ÄÄÄÄÄÄÄÄg_": 8086,
      "size_tÄiÄ": 8087,
      "service": 8088,
      "var_": 8089,
      "enÄ": 8090,
      "DEFAULT": 8091,
      "wm": 8092,
      "_Pyx_": 8093,
      "day": 8094,
      "cols": 8095,
      "ca_": 8096,
      "OO": 8097,
      "ÄÄÄÄÄÄÄÄÄÄÄÄcontinue": 8098,
      "ÄO_": 8099,
      "lta": 8100,
      "1024": 8101,
      "FIL": 8102,
      "unique_": 8103,
      "ÄaÄ": 8104,
      "GP": 8105,
      "sole": 8106,
      "ii": 8107,
      "ordÄ": 8108,
      "inlineÄ": 8109,
      "ext_": 8110,
      "Lim": 8111,
      "sumÄ": 8112,
      "resp": 8113,
      "oriz": 8114,
      "ÄÄconstÄcharÄ": 8115,
      "DWORD": 8116,
      ">\\n\"": 8117,
      "vs": 8118,
      "char_": 8119,
      "segment": 8120,
      "FUNCTION": 8121,
      "hook": 8122,
      "interface": 8123,
      "ÄcaseÄ": 8124,
      "ÄGF_": 8125,
      "ÄÄÄÄl": 8126,
      "byteÄ": 8127,
      "66": 8128,
      "****": 8129,
      "ELEM": 8130,
      "Changed": 8131,
      "v2": 8132,
      "vec_": 8133,
      "Network": 8134,
      "dices": 8135,
      "chine": 8136,
      "spi": 8137,
      "onent": 8138,
      "stom": 8139,
      "timeoutÄ": 8140,
      "Timer": 8141,
      "QStringÄ": 8142,
      "Trace": 8143,
      "ned": 8144,
      "0'Ä": 8145,
      "dit_": 8146,
      "PARAM": 8147,
      "200": 8148,
      "Älist_": 8149,
      "suf": 8150,
      "Async": 8151,
      "andom": 8152,
      "proxy": 8153,
      "LAB": 8154,
      "make": 8155,
      "ANCE": 8156,
      "fw": 8157,
      "tr_": 8158,
      "ometry": 8159,
      "rege": 8160,
      "ive_": 8161,
      "LEÄ": 8162,
      "mod_": 8163,
      "printk": 8164,
      "MAG": 8165,
      "Ämu": 8166,
      "alle": 8167,
      "transform": 8168,
      "score": 8169,
      "limitÄ": 8170,
      "any": 8171,
      "weight": 8172,
      "AUT": 8173,
      "ÄÄÄÄx": 8174,
      "lower": 8175,
      "UNT": 8176,
      "SL_": 8177,
      "intÄargc": 8178,
      "lugin_": 8179,
      "'0'": 8180,
      "Host": 8181,
      "words": 8182,
      "pn": 8183,
      "Ästrcmp": 8184,
      "changed": 8185,
      "ULL": 8186,
      "ÄÄÄÄÄÄÄÄm": 8187,
      "impl": 8188,
      "Work": 8189,
      "failed": 8190,
      "Variable": 8191,
      "vas": 8192,
      "S_P": 8193,
      "tuple": 8194,
      "serializ": 8195,
      "Äfmt": 8196,
      "Volume": 8197,
      "exe": 8198,
      "ÄÄÄÄvoidÄ": 8199,
      "Äback": 8200,
      "bit_": 8201,
      "ÄCO": 8202,
      "ED_": 8203,
      "Proto": 8204,
      "currentÄ": 8205,
      "Fail": 8206,
      "cap_": 8207,
      "Wait": 8208,
      "Play": 8209,
      "restore": 8210,
      "Reset": 8211,
      "spli": 8212,
      "parameter": 8213,
      "ACCE": 8214,
      "Äcode": 8215,
      "EÄ": 8216,
      "(\"": 8217,
      "'\\\\": 8218,
      "_callback": 8219,
      "c\"": 8220,
      "XX": 8221,
      "GC": 8222,
      "returnÄerr": 8223,
      "attrÄ": 8224,
      "ÄÄÄÄÄÄÄÄc": 8225,
      "dma_": 8226,
      "scr": 8227,
      "CharÄ": 8228,
      "USH": 8229,
      "PUT": 8230,
      "acter": 8231,
      "need": 8232,
      "Args": 8233,
      "Spe": 8234,
      "Service": 8235,
      "ÄÄÄÄÄÄÄÄÄÄÄÄÄÄÄÄÄÄÄÄÄÄÄÄÄÄÄÄÄÄÄÄÄÄÄÄÄÄÄÄÄÄÄÄÄÄ": 8236,
      "lend": 8237,
      "(%d": 8238,
      "Pass": 8239,
      "ure_": 8240,
      "dev_err": 8241,
      "Äparam": 8242,
      "m_n": 8243,
      "ÄIP": 8244,
      "groupÄ": 8245,
      "Äel": 8246,
      "7Ä": 8247,
      "interval": 8248,
      "NORM": 8249,
      "acity": 8250,
      "mime": 8251,
      "ÄÄautoÄ": 8252,
      "Imp": 8253,
      "ÄAR": 8254,
      "Section": 8255,
      "ullÄ": 8256,
      "SSL": 8257,
      "Ho": 8258,
      "Ägst_": 8259,
      "iform": 8260,
      "amily": 8261,
      "crypto_": 8262,
      "Äoper": 8263,
      "_COMP": 8264,
      "Type_": 8265,
      "queueÄ": 8266,
      "Sk": 8267,
      "ference": 8268,
      "number_": 8269,
      "camer": 8270,
      "Äper": 8271,
      "ModeÄ": 8272,
      "BAD": 8273,
      "unlikely": 8274,
      "ked": 8275,
      "factor": 8276,
      "Sha": 8277,
      "Dist": 8278,
      "RUN": 8279,
      "success": 8280,
      "\"f": 8281,
      "IÄ": 8282,
      "UNKNOWN": 8283,
      "returnÄresult": 8284,
      "cle": 8285,
      "SN": 8286,
      "EP": 8287,
      "AIN": 8288,
      "dialog_": 8289,
      "Program": 8290,
      "childÄ": 8291,
      "ÄÄÄÄÄÄÄÄs": 8292,
      "requestÄ": 8293,
      "ine_": 8294,
      "ÄÄÄÄÄÄÄÄ_": 8295,
      "ÄÄÄÄbool": 8296,
      "Initializ": 8297,
      "ATH_": 8298,
      "orig_": 8299,
      "Äold_": 8300,
      "ÄbÄ": 8301,
      "x\"": 8302,
      "OC_": 8303,
      "Äite": 8304,
      "post": 8305,
      "FLOAT_": 8306,
      "INFO_": 8307,
      "EventÄ": 8308,
      "cacheÄ": 8309,
      "Right": 8310,
      "_clear": 8311,
      "TAG": 8312,
      "cer": 8313,
      "FC": 8314,
      "hw_": 8315,
      "clientÄ": 8316,
      "gotoÄerr": 8317,
      "wn": 8318,
      "nil": 8319,
      "RÄ": 8320,
      "wi": 8321,
      "ONLY": 8322,
      "Ätest": 8323,
      "search_": 8324,
      "Seq": 8325,
      "hasÄ": 8326,
      "MU": 8327,
      "Äss": 8328,
      "Ä__func__": 8329,
      "STATUS": 8330,
      "luster": 8331,
      "ib_": 8332,
      "Auth": 8333,
      "ctxt": 8334,
      "DEVICE_": 8335,
      "LD": 8336,
      "virt": 8337,
      "Points": 8338,
      "fieldÄ": 8339,
      "insert_": 8340,
      "structÄb": 8341,
      "Parser": 8342,
      "_STATUS": 8343,
      "jec": 8344,
      "points": 8345,
      "DIS_": 8346,
      "lr": 8347,
      "StreamÄ": 8348,
      "Ästrdup": 8349,
      "cpu_": 8350,
      "':": 8351,
      "Interface": 8352,
      "IF_": 8353,
      "_FAIL": 8354,
      "only": 8355,
      "method_": 8356,
      "CLAS": 8357,
      "Äobject": 8358,
      "p1": 8359,
      "sourceÄ": 8360,
      "NUMB": 8361,
      "driver": 8362,
      "home": 8363,
      "'.'": 8364,
      "help": 8365,
      "funcÄ": 8366,
      "director": 8367,
      "stance_": 8368,
      "dum": 8369,
      "atum": 8370,
      "ÄboolÄ": 8371,
      "ÄÄm": 8372,
      "match_": 8373,
      "ÄÄÄÄÄÄÄÄÄÄÄÄÄÄÄÄif": 8374,
      "DISP": 8375,
      "TRL": 8376,
      "sensor": 8377,
      "=%": 8378,
      "ernel": 8379,
      "name\"": 8380,
      "year": 8381,
      "UP_": 8382,
      "page_": 8383,
      "drm_": 8384,
      "EF": 8385,
      "sensi": 8386,
      "compute": 8387,
      "Äfree": 8388,
      "VOID": 8389,
      "WA": 8390,
      "\"Ä\"": 8391,
      "_print_": 8392,
      "dist": 8393,
      "arm": 8394,
      "Jo": 8395,
      "connectÄ": 8396,
      "param_": 8397,
      "prev_": 8398,
      "FR": 8399,
      "atures": 8400,
      "Expression": 8401,
      "jpe": 8402,
      "Feature": 8403,
      "ÄS_": 8404,
      "_func": 8405,
      "rootÄ": 8406,
      "Sig": 8407,
      "comment": 8408,
      "ontÄ": 8409,
      "kafk": 8410,
      "3f": 8411,
      "\",Ä": 8412,
      "Äref": 8413,
      "pli": 8414,
      "offset_": 8415,
      "NS": 8416,
      "LEV": 8417,
      ".Ä": 8418,
      "Atom": 8419,
      "eer": 8420,
      "LIC": 8421,
      "stats_": 8422,
      "Ämask": 8423,
      "Filename": 8424,
      "Tensor": 8425,
      "Ähost": 8426,
      "Pix": 8427,
      "cs_": 8428,
      "togg": 8429,
      "content_": 8430,
      "Use": 8431,
      "verbose": 8432,
      "conv": 8433,
      "Plugin": 8434,
      "attrs": 8435,
      "\"--": 8436,
      "MAC": 8437,
      "adding": 8438,
      "obj_": 8439,
      "dra": 8440,
      "recv": 8441,
      "auth_": 8442,
      "Äpt": 8443,
      "Ärec": 8444,
      "1.0": 8445,
      "hash_table_": 8446,
      "\"M": 8447,
      "merge": 8448,
      "pkt": 8449,
      "er_get_": 8450,
      "lack": 8451,
      "ipe_": 8452,
      "writeÄ": 8453,
      "mote": 8454,
      "listen": 8455,
      "Flags_": 8456,
      "\"%s:": 8457,
      "constÄgcharÄ": 8458,
      "LEC": 8459,
      "fx": 8460,
      "\"Re": 8461,
      "ord_": 8462,
      "Document": 8463,
      "ending": 8464,
      "lag_": 8465,
      "FORMAT_": 8466,
      "Ästream": 8467,
      "Ä8Ä": 8468,
      "root_child": 8469,
      "andid": 8470,
      "gress": 8471,
      "Äbytes": 8472,
      "encoding": 8473,
      "HTTP": 8474,
      "ility": 8475,
      "reader": 8476,
      "format_": 8477,
      "x1": 8478,
      "Fix": 8479,
      "Push": 8480,
      "Access": 8481,
      "INDEX": 8482,
      "antÄ": 8483,
      "anus_": 8484,
      "FIG": 8485,
      "lua_St": 8486,
      "Integer": 8487,
      "DL": 8488,
      "ÄÄÄÄÄÄg": 8489,
      "ÄrÄ": 8490,
      "28": 8491,
      "GListÄ": 8492,
      "util": 8493,
      "shif": 8494,
      "commit": 8495,
      "uv": 8496,
      "const_iterator": 8497,
      "ASH_": 8498,
      "driv": 8499,
      "pm": 8500,
      "Selection": 8501,
      "Äcb": 8502,
      "\"#": 8503,
      "action_": 8504,
      "exit_": 8505,
      "cla": 8506,
      "eb": 8507,
      "constÄintÄ": 8508,
      "Exit": 8509,
      "written": 8510,
      "Plan": 8511,
      "PP": 8512,
      "Äm_p": 8513,
      "\"\\\"": 8514,
      "VERIFY": 8515,
      "_parse": 8516,
      "mary": 8517,
      "Decode": 8518,
      "Ä64": 8519,
      "fds": 8520,
      "78": 8521,
      "ich": 8522,
      "integer": 8523,
      "Json": 8524,
      "_PRE": 8525,
      "caps": 8526,
      "kfree": 8527,
      "Äfunction": 8528,
      "Ä%dÄ": 8529,
      "Ärequest": 8530,
      "known": 8531,
      "MY": 8532,
      "Engine": 8533,
      "ENTER": 8534,
      "rsp": 8535,
      "F_INET": 8536,
      "sa_": 8537,
      "FW": 8538,
      "expectedÄ": 8539,
      "Com": 8540,
      "urb": 8541,
      "_CALLBACK": 8542,
      "ÄfromÄ": 8543,
      "ell_": 8544,
      "ATTRIBU": 8545,
      "ÄposÄ": 8546,
      "Cam": 8547,
      "VT": 8548,
      "dia": 8549,
      "px": 8550,
      "ÄÄÄÄdouble": 8551,
      "unit_": 8552,
      "],": 8553,
      "session_": 8554,
      "Tile": 8555,
      "s_to_": 8556,
      "ACTI": 8557,
      "menu_": 8558,
      "Äerrno": 8559,
      "WINDOW": 8560,
      "ctl_": 8561,
      "ureÄ": 8562,
      "Ori": 8563,
      "NOTI": 8564,
      "element_": 8565,
      "_FOR": 8566,
      "isEmpty": 8567,
      "txt": 8568,
      "she": 8569,
      "mainÄ": 8570,
      "access": 8571,
      "Descriptor": 8572,
      "ÄÄÄÄÄÄÄÄn": 8573,
      "Älabel": 8574,
      "NEW": 8575,
      "va": 8576,
      "Änow": 8577,
      "_CR": 8578,
      "ated_": 8579,
      "crypt": 8580,
      "lt": 8581,
      "tcp": 8582,
      "ÄÄÄÄA": 8583,
      "seq_": 8584,
      "Ämessage": 8585,
      "layer_": 8586,
      "VER_": 8587,
      "Äar": 8588,
      "simple": 8589,
      "lc": 8590,
      "temp_": 8591,
      "Make": 8592,
      "empt": 8593,
      "directory": 8594,
      "rightÄ": 8595,
      "layout_": 8596,
      "curÄ": 8597,
      "func_": 8598,
      "ination": 8599,
      "Dim": 8600,
      "Äsqlite": 8601,
      "\"A": 8602,
      "Äs_": 8603,
      "OF_": 8604,
      "ACKE": 8605,
      "ÄGET_": 8606,
      "uint_": 8607,
      "Seg": 8608,
      "ÄGD": 8609,
      "booleanÄ": 8610,
      "adjust": 8611,
      "used_": 8612,
      "scope": 8613,
      "ENTRY": 8614,
      "endifÄÄ": 8615,
      "tcg_": 8616,
      "emitÄ": 8617,
      "scal": 8618,
      "MAGIC": 8619,
      "GError": 8620,
      "Printf": 8621,
      "ÄÄÄÄÄÄÄÄÄÄÄÄp": 8622,
      "SetÄ": 8623,
      "mv": 8624,
      "SO": 8625,
      "_pri": 8626,
      "top_": 8627,
      "Cu": 8628,
      "ÄÄÄÄÄÄÄÄfprintf": 8629,
      "ÄMO": 8630,
      "Part": 8631,
      "changedÄ": 8632,
      "force": 8633,
      "EQUAL": 8634,
      "shared_ptr": 8635,
      "_pathÄ": 8636,
      "allÄ": 8637,
      "hwnd": 8638,
      "Depth": 8639,
      "Body": 8640,
      "equal": 8641,
      "ClassÄ": 8642,
      "3d": 8643,
      "int16": 8644,
      "compo": 8645,
      "Ätx": 8646,
      "_cmd": 8647,
      "Instruction": 8648,
      "_find_": 8649,
      "BOOST_": 8650,
      "ÄÄÄÄz": 8651,
      "ayload": 8652,
      "Order": 8653,
      "Äuser": 8654,
      "ÄSIG": 8655,
      "TRANS": 8656,
      ":\\n\"": 8657,
      "BUFFER_": 8658,
      "ifyÄ": 8659,
      "Constant": 8660,
      "Full": 8661,
      "lw": 8662,
      "methodÄ": 8663,
      "Tran": 8664,
      "URE_": 8665,
      "conta": 8666,
      "\"G": 8667,
      "ÄÄd": 8668,
      "assign": 8669,
      "atomic_": 8670,
      "watch": 8671,
      "68": 8672,
      "ÄÄÄÄÄÄÄÄfor": 8673,
      "cbÄ": 8674,
      "maj": 8675,
      "NET_": 8676,
      "ÄÄGst": 8677,
      "ÄÄÄÄÄÄÄÄÄÄÄÄelse": 8678,
      "vider": 8679,
      "PORT_": 8680,
      "LC": 8681,
      "ual_": 8682,
      "era": 8683,
      "lookup_": 8684,
      "REQ": 8685,
      "'-'": 8686,
      "ÄÄÄÄÄÄÄÄprintf": 8687,
      "ULONG": 8688,
      "VIDE": 8689,
      "Values": 8690,
      "s_tÄ": 8691,
      "Ä__ecere": 8692,
      "rg": 8693,
      "\"can": 8694,
      "definedÄ": 8695,
      "execute": 8696,
      "2_Ä": 8697,
      "Ämb": 8698,
      "interrup": 8699,
      "v1": 8700,
      "ifie": 8701,
      "FI_": 8702,
      "_create_": 8703,
      "Äserver": 8704,
      "INTE": 8705,
      "digest": 8706,
      "DELE": 8707,
      "EK": 8708,
      "rw": 8709,
      "reference": 8710,
      "\"GL_": 8711,
      "OW": 8712,
      "_flags": 8713,
      "caseÄ0": 8714,
      "ux": 8715,
      "Äconne": 8716,
      "ifdefÄH": 8717,
      "imum": 8718,
      "Äconn": 8719,
      "ZER": 8720,
      "If": 8721,
      "ATION_": 8722,
      "icÄ": 8723,
      "ÄOP_": 8724,
      "38": 8725,
      "FAILED": 8726,
      "int32_t": 8727,
      "writer": 8728,
      "anti": 8729,
      "LEVEL": 8730,
      "rtl": 8731,
      "LIM": 8732,
      "Ästrchr": 8733,
      "lb": 8734,
      "route": 8735,
      "rgb": 8736,
      "Äprintf": 8737,
      "ings": 8738,
      "ÄGFP_": 8739,
      "ARD": 8740,
      "Compare": 8741,
      "Ärun": 8742,
      "DOWN": 8743,
      "clear_": 8744,
      "CodeÄ": 8745,
      "ification": 8746,
      "27": 8747,
      "Äatoi": 8748,
      "Äopen": 8749,
      "Äpack": 8750,
      "sist": 8751,
      "STATUS_": 8752,
      "struct_": 8753,
      "lk_": 8754,
      "cg": 8755,
      "Object_": 8756,
      "built": 8757,
      "Ädelta": 8758,
      "TableÄ": 8759,
      "s_get_": 8760,
      "Ph": 8761,
      "NOT": 8762,
      "PROP_": 8763,
      "ATAL": 8764,
      "ÄÄÄÄa": 8765,
      "aux": 8766,
      "ÄMS": 8767,
      "sess": 8768,
      "_position": 8769,
      "Reader": 8770,
      "manag": 8771,
      "FIR": 8772,
      "HAVE_": 8773,
      "BB": 8774,
      "audio_": 8775,
      "oom": 8776,
      "31": 8777,
      "OLD": 8778,
      "ÄÄÄÄÄÄÄÄC": 8779,
      "Location": 8780,
      "_fd": 8781,
      "OBJ_": 8782,
      "tun": 8783,
      "system_": 8784,
      "je": 8785,
      "Äsock": 8786,
      "NEC": 8787,
      "ÄÄÄÄPy_": 8788,
      "Warning": 8789,
      "Äproc": 8790,
      "U32": 8791,
      "mi_": 8792,
      "Äpsz": 8793,
      "matchÄ": 8794,
      "arge": 8795,
      "lour": 8796,
      "37": 8797,
      "stack_": 8798,
      "mesh": 8799,
      "NumberÄ": 8800,
      "Äge": 8801,
      "firm": 8802,
      "GER": 8803,
      "sche": 8804,
      "cts": 8805,
      "Äfopen": 8806,
      "ÄOP": 8807,
      "S_C": 8808,
      "Loop": 8809,
      "Show": 8810,
      "AMP": 8811,
      "Win": 8812,
      "G_OBJECTÄ": 8813,
      "bitmap": 8814,
      "sive": 8815,
      "handler_": 8816,
      "Basi": 8817,
      "ToString": 8818,
      "Raw": 8819,
      "$f": 8820,
      "cond_": 8821,
      "ga": 8822,
      "compress": 8823,
      "erial": 8824,
      "registr": 8825,
      "ÄÄdouble": 8826,
      "ln": 8827,
      "run_": 8828,
      "ÄÄÄÄre": 8829,
      "TR_": 8830,
      "tbl": 8831,
      "descÄ": 8832,
      "wsgi_": 8833,
      "lone": 8834,
      "address_": 8835,
      "DESC": 8836,
      "PyErr": 8837,
      "aryÄ": 8838,
      "property": 8839,
      "Äfind_": 8840,
      "%d,": 8841,
      "clip": 8842,
      "WindowÄ": 8843,
      "Äfunc": 8844,
      "LINE__": 8845,
      "ÄAP": 8846,
      "ÄÄÄÄÄÄÄÄd": 8847,
      "ÄPNG_": 8848,
      "left_": 8849,
      "sc_": 8850,
      "ÄÄÄÄT": 8851,
      "Uniform": 8852,
      "Pair": 8853,
      "frameÄ": 8854,
      "Äfile_": 8855,
      "resource": 8856,
      "ÄÄÄÄASSERT_": 8857,
      "Äother": 8858,
      "colors": 8859,
      "snap": 8860,
      "attributes": 8861,
      "bod": 8862,
      "Äenv": 8863,
      "Älevel": 8864,
      "Äuint8_tÄ": 8865,
      "expression": 8866,
      "blocks": 8867,
      "parator": 8868,
      "KERNEL": 8869,
      "lobus_": 8870,
      "loop_": 8871,
      "neg": 8872,
      "kt": 8873,
      "Äsig": 8874,
      "condÄ": 8875,
      "True": 8876,
      "WidthÄ": 8877,
      "PLY": 8878,
      "USB": 8879,
      "strcmpÄ": 8880,
      "account": 8881,
      "timeout_": 8882,
      "team": 8883,
      "flat": 8884,
      "headers": 8885,
      "stÄbeÄ": 8886,
      "Directory": 8887,
      "'%": 8888,
      "transfer": 8889,
      "Äfield": 8890,
      "mut": 8891,
      "Ächild": 8892,
      "lip": 8893,
      "ÄdoubleÄ": 8894,
      "zz": 8895,
      "ÄÄassert": 8896,
      "Slot": 8897,
      "Älast_": 8898,
      "Äinput_": 8899,
      "rm": 8900,
      "service_": 8901,
      "WIDTH": 8902,
      "Sel": 8903,
      "Scalar": 8904,
      "anch": 8905,
      "Shader": 8906,
      "gpu": 8907,
      "_pix": 8908,
      "labelÄ": 8909,
      "mysql_": 8910,
      "rive": 8911,
      "AND_": 8912,
      "tiveÄ": 8913,
      "FLOAT": 8914,
      "Clip": 8915,
      "SV": 8916,
      "Utf": 8917,
      "0_Ä": 8918,
      "FÄ": 8919,
      "pr_": 8920,
      "Select": 8921,
      "OKÄ": 8922,
      "World": 8923,
      "font_": 8924,
      "FT_": 8925,
      "Ab": 8926,
      "channelÄ": 8927,
      "targetÄ": 8928,
      "Met": 8929,
      "Ä0x4": 8930,
      "PointÄ": 8931,
      "component": 8932,
      "S_S": 8933,
      "fc_": 8934,
      "gam": 8935,
      "testÄ": 8936,
      "ÄÄÄÄÄÄÄÄÄÄbreak": 8937,
      "c2": 8938,
      "CPU": 8939,
      "sort_": 8940,
      "ipel": 8941,
      "t1": 8942,
      "t2": 8943,
      "XY": 8944,
      "_COM": 8945,
      "_irq": 8946,
      "for_each_": 8947,
      "ÄÄÄÄi": 8948,
      "mission": 8949,
      "SIZEÄ": 8950,
      "columns": 8951,
      "dest_": 8952,
      "amilyÄ": 8953,
      "rdev": 8954,
      "namic": 8955,
      "ÄPyObjectÄ": 8956,
      "depthÄ": 8957,
      "extÄ": 8958,
      "MON": 8959,
      "TIC": 8960,
      "</": 8961,
      "ative_": 8962,
      "lap": 8963,
      "draw_": 8964,
      "Äroot": 8965,
      "notify_": 8966,
      "ÄÄ0": 8967,
      "copyÄ": 8968,
      "NET": 8969,
      "luaL_": 8970,
      "Ä0x80": 8971,
      "ÄÄÄÄwhile": 8972,
      "INC": 8973,
      "=\\\"": 8974,
      "susp": 8975,
      "intel_": 8976,
      "fer_": 8977,
      "_destroy": 8978,
      "frag": 8979,
      "hostÄ": 8980,
      "MALL": 8981,
      "teÄ": 8982,
      "Mark": 8983,
      "memÄ": 8984,
      "gid": 8985,
      "KeyÄ": 8986,
      "FLOAT_EQ": 8987,
      "render": 8988,
      "dh": 8989,
      "UPDAT": 8990,
      "WIT": 8991,
      "Äcf": 8992,
      "ÄÄÄÄASSERT_EQ": 8993,
      "lua_StateÄ": 8994,
      "Dst": 8995,
      "21": 8996,
      "super": 8997,
      "Scroll": 8998,
      "97": 8999,
      "slist_": 9000,
      "Align": 9001,
      "ÄreturnÄfalse": 9002,
      "Attrib": 9003,
      "FE": 9004,
      "ÄÄÄÄÄÄÄÄcharÄ": 9005,
      "deleteÄ": 9006,
      "Äclient": 9007,
      "hash_table": 9008,
      "ÄÄÄÄtmp": 9009,
      "utls_": 9010,
      "Non": 9011,
      "Case": 9012,
      "Älocal": 9013,
      "ÄÄÄÄÄÄÄÄÄÄÄÄÄÄÄÄÄÄÄÄÄÄÄÄÄÄÄÄÄÄÄÄÄÄÄÄÄÄÄÄÄÄÄ": 9014,
      "nxt_": 9015,
      "MULTI": 9016,
      "LOAD": 9017,
      "ons": 9018,
      "fra": 9019,
      "ÄresultÄ": 9020,
      "constra": 9021,
      "tiv": 9022,
      "tile_": 9023,
      "Dict": 9024,
      "d_p": 9025,
      "reset_": 9026,
      "scÄ": 9027,
      "_printfÄ": 9028,
      "OL_": 9029,
      "ÄFAIL": 9030,
      "Än_": 9031,
      "ongÄ": 9032,
      "src/": 9033,
      "big": 9034,
      "ps_": 9035,
      "l2": 9036,
      "meÄ": 9037,
      "ÄFile": 9038,
      "TAG_": 9039,
      "pin": 9040,
      "ÄÄÄÄÄÄÄÄdefault": 9041,
      "Alpha": 9042,
      "Nav": 9043,
      "ÄNG": 9044,
      "ÄÄÄÄÄÄÄÄÄÄÄÄÄÄÄÄcaseÄ": 9045,
      "szÄ": 9046,
      "Items": 9047,
      "HER": 9048,
      "network": 9049,
      "ÄQString": 9050,
      "log_error": 9051,
      "16_": 9052,
      "ptr_": 9053,
      "samp": 9054,
      "THREAD": 9055,
      "way": 9056,
      "WM": 9057,
      "SEC": 9058,
      "previ": 9059,
      "capt": 9060,
      "LP": 9061,
      "ts_": 9062,
      "ÄAC": 9063,
      "ÄÄÄÄreturnÄret": 9064,
      "_portÄ": 9065,
      "TRACE_": 9066,
      "api_": 9067,
      "c1": 9068,
      "ency": 9069,
      "Sequence": 9070,
      "ÄlÄ": 9071,
      "Äcallback": 9072,
      "th_": 9073,
      "compress_": 9074,
      "atchÄ": 9075,
      "sink": 9076,
      "_bytes": 9077,
      "Älp": 9078,
      "ÄÄÄÄreturnÄFALSE": 9079,
      "_proto": 9080,
      "MODU": 9081,
      "Vec2": 9082,
      "shape": 9083,
      "Notify": 9084,
      "vision": 9085,
      "ÄÄÄÄgl": 9086,
      "gnome": 9087,
      "bor": 9088,
      "rout": 9089,
      "_SIZEÄ": 9090,
      "m_b": 9091,
      "normal": 9092,
      "MEN": 9093,
      "ates": 9094,
      "LayoutGet": 9095,
      "asci": 9096,
      "mpi_": 9097,
      "VATE": 9098,
      "vb": 9099,
      "6050": 9100,
      "nt_": 9101,
      "Prefix": 9102,
      "Äscale": 9103,
      "Äargc": 9104,
      "chars": 9105,
      "BC": 9106,
      "gotoÄfail": 9107,
      "Ä1024": 9108,
      "Wnd": 9109,
      "ms_": 9110,
      "Heap": 9111,
      "0.0": 9112,
      "HANDLE": 9113,
      ".val": 9114,
      "plyÄ": 9115,
      "ed\"": 9116,
      "nn": 9117,
      "real_": 9118,
      "sed_": 9119,
      "Äto_": 9120,
      "_factor": 9121,
      "ÄbeÄ": 9122,
      "mgr": 9123,
      "Ämod": 9124,
      "ina_": 9125,
      "fpÄ": 9126,
      "Äscan": 9127,
      "zone": 9128,
      "upper": 9129,
      "Äfirst": 9130,
      "ÄÄS": 9131,
      "join": 9132,
      "Ätar": 9133,
      "stage": 9134,
      "gh": 9135,
      "The": 9136,
      "ÄPRO": 9137,
      ".5f": 9138,
      "%%": 9139,
      "vc": 9140,
      "HEADER": 9141,
      "option_": 9142,
      "TX_": 9143,
      "ingle": 9144,
      "Äg_list_": 9145,
      "grid": 9146,
      "ÄÄÄÄj": 9147,
      "ÄÄthis": 9148,
      "icon_": 9149,
      "RESS": 9150,
      "ÄÄÄÄÄÄÄÄÄÄÄÄintÄ": 9151,
      "ÄÄÄÄÄÄÄÄgotoÄ": 9152,
      "scan_": 9153,
      "pect": 9154,
      "SQL_": 9155,
      "Gen": 9156,
      "reqÄ": 9157,
      "OPER": 9158,
      ":Ä%s": 9159,
      "Parameters": 9160,
      "ÄvalueÄ": 9161,
      "\"_": 9162,
      "men": 9163,
      "'\\\\'": 9164,
      "':'": 9165,
      "ttp": 9166,
      "BlockÄ": 9167,
      "WE": 9168,
      "tage": 9169,
      "ample": 9170,
      "visi": 9171,
      "Normal": 9172,
      ":Ä%d\\n\"": 9173,
      "Ä_mm_": 9174,
      "loa": 9175,
      "Cal": 9176,
      "sume": 9177,
      "_pixel": 9178,
      "Variant": 9179,
      "_packet": 9180,
      "Ämodel": 9181,
      "ater": 9182,
      "ÄÄÄÄuint32_tÄ": 9183,
      "NORMAL": 9184,
      "sessionÄ": 9185,
      "PATH": 9186,
      "HAL_": 9187,
      "Ax": 9188,
      "Extra": 9189,
      "rush": 9190,
      "PL_": 9191,
      "ÄgpointerÄ": 9192,
      "NumberOf": 9193,
      "1_Ä": 9194,
      "Änext_": 9195,
      "Äcl": 9196,
      "ÄÄelseÄ": 9197,
      "ÄÄASSERT_FLOAT_EQ": 9198,
      "replace": 9199,
      "SHIFT": 9200,
      "'a": 9201,
      "shut": 9202,
      "ÄTYPE_": 9203,
      "coord": 9204,
      "structor": 9205,
      "Names": 9206,
      "private_": 9207,
      "bra": 9208,
      "voidÄS": 9209,
      "nick": 9210,
      "GN": 9211,
      "memoryÄ": 9212,
      "lice": 9213,
      "debugÄ": 9214,
      "mouse": 9215,
      "Sur": 9216,
      "tical": 9217,
      "pageÄ": 9218,
      "ÄDI": 9219,
      "s_per_": 9220,
      "oll": 9221,
      "Hist": 9222,
      "atio": 9223,
      "Äli": 9224,
      "condition": 9225,
      "Äcleanup": 9226,
      "Äfailed\"": 9227,
      "ÄÄÄÄÄÄÄÄÄÄÄÄÄÄÄÄÄÄÄÄbreak": 9228,
      "_port_": 9229,
      "lua_push": 9230,
      "util_": 9231,
      "pipe": 9232,
      "ÄÄÄÄmemset": 9233,
      "STD": 9234,
      "uint16_t": 9235,
      "Äsave": 9236,
      "led_": 9237,
      "long_": 9238,
      "poly": 9239,
      "inputÄ": 9240,
      "Äfs": 9241,
      "Ästart_": 9242,
      "arÄ": 9243,
      "L\"": 9244,
      "qr": 9245,
      "Äcre": 9246,
      "handlerÄ": 9247,
      "ACHE_": 9248,
      "Chunk": 9249,
      "Äpd": 9250,
      "hid": 9251,
      "buffers": 9252,
      "gram_": 9253,
      "Mono": 9254,
      "Lookup": 9255,
      "conn_": 9256,
      "viron": 9257,
      "Anim": 9258,
      "LOB": 9259,
      "ict": 9260,
      "partition": 9261,
      "plit": 9262,
      "REQUE": 9263,
      "='": 9264,
      "ÄÄÄÄÄÄÄÄfree": 9265,
      "varÄ": 9266,
      "dstÄ": 9267,
      "container": 9268,
      "receive": 9269,
      "stat_": 9270,
      "Files": 9271,
      "Response": 9272,
      "tp_": 9273,
      "rd_kafk": 9274,
      "spar": 9275,
      "ly_": 9276,
      "',": 9277,
      "ÄÄÄÄÄÄelseÄifÄ": 9278,
      "DX": 9279,
      "inition": 9280,
      "VERSION_": 9281,
      "gui__": 9282,
      "hu": 9283,
      "Ob": 9284,
      "sample_": 9285,
      "ARG_": 9286,
      "_pop": 9287,
      "ator_": 9288,
      "Äoptions": 9289,
      "RESULT": 9290,
      "__ecereNameSpace__ecere__com_": 9291,
      "vf": 9292,
      "ÄÄÄÄmemcpy": 9293,
      "DBG_": 9294,
      "UTF8": 9295,
      "scroll": 9296,
      "Editor": 9297,
      "dom_": 9298,
      "inf": 9299,
      "Disas": 9300,
      "eq": 9301,
      "ARCH": 9302,
      "codec_": 9303,
      "X509": 9304,
      "wc": 9305,
      "kind": 9306,
      "ÄÄÄÄÄÄÄÄelseÄÄÄÄÄÄÄÄ": 9307,
      "klass": 9308,
      "Stati": 9309,
      "DOUB": 9310,
      "tils": 9311,
      "ONG_": 9312,
      "pare": 9313,
      ".vala\"": 9314,
      "ÄtÄ": 9315,
      "HT": 9316,
      "sequen": 9317,
      "Äui": 9318,
      "Arch": 9319,
      "safe_": 9320,
      "VEL_": 9321,
      "white": 9322,
      "ÄÄÄÄset": 9323,
      "ÄIs": 9324,
      "ride": 9325,
      "LOG_ERR": 9326,
      "_CUR": 9327,
      "connection_": 9328,
      "inodeÄ": 9329,
      "refresh": 9330,
      "ORE": 9331,
      "need_": 9332,
      "ready": 9333,
      "BAD_": 9334,
      "eg": 9335,
      "Äout_": 9336,
      "structÄi": 9337,
      "art_": 9338,
      "Äreinterpret_cast": 9339,
      "mask_": 9340,
      "ÄÄÄÄauto": 9341,
      "SSL_": 9342,
      "quire": 9343,
      "UPPORTED": 9344,
      "unpack": 9345,
      "ze": 9346,
      "ASN": 9347,
      "wo": 9348,
      "destÄ": 9349,
      "miss": 9350,
      "filterÄ": 9351,
      "LEVEL_": 9352,
      "ORI": 9353,
      "BUF_": 9354,
      "ire": 9355,
      "ÄÄÄÄÄÄstd": 9356,
      "collection": 9357,
      "JSON": 9358,
      "Ädst_": 9359,
      "ÄnewÄ": 9360,
      "LAN": 9361,
      "wpa_s": 9362,
      "cluster": 9363,
      "spin_unlock_irq": 9364,
      "modelÄ": 9365,
      "iler": 9366,
      "hdrÄ": 9367,
      "RX": 9368,
      "ust": 9369,
      "prop_": 9370,
      "ÄisÄnotÄ": 9371,
      "ÄÄASSERT_EQ": 9372,
      "namic_": 9373,
      "exprÄ": 9374,
      "Av": 9375,
      "_CHAN": 9376,
      "sizeofÄ": 9377,
      "PrivateÄ": 9378,
      "Mac": 9379,
      "butÄ": 9380,
      "netdev": 9381,
      "This": 9382,
      "label_": 9383,
      "ÄendÄ": 9384,
      "viceÄ": 9385,
      "ÄÄÄÄÄÄÄÄÄÄÄÄÄÄÄÄÄÄÄÄÄÄÄÄÄÄÄÄÄÄÄÄÄÄÄÄÄÄÄ": 9386,
      "STRUC": 9387,
      "remain": 9388,
      "cleanup": 9389,
      "Description": 9390,
      "readyÄ": 9391,
      "unknown": 9392,
      "Äpri": 9393,
      "39": 9394,
      "\"CouldÄnotÄ": 9395,
      "redis": 9396,
      "ROM": 9397,
      "rop_": 9398,
      "ea": 9399,
      "intr": 9400,
      "hal": 9401,
      "ategory": 9402,
      "MEM_": 9403,
      "LINK": 9404,
      "\"E": 9405,
      "transl": 9406,
      "Xml": 9407,
      "TEST_F": 9408,
      "lace_": 9409,
      "ÄÄÄÄfloat": 9410,
      "_init_": 9411,
      "Templ": 9412,
      "Äpng_ptr": 9413,
      "allocation": 9414,
      "Äoutput_": 9415,
      "Äyy": 9416,
      "r'": 9417,
      "Private": 9418,
      "mapping": 9419,
      "tsÄ": 9420,
      "Zero": 9421,
      "ÄÄstaticÄ": 9422,
      "notify": 9423,
      "Äprev": 9424,
      "ValÄ": 9425,
      "OCK": 9426,
      "IntÄ": 9427,
      "ÄEV": 9428,
      "quare": 9429,
      "\"CannotÄ": 9430,
      "\"TheÄ": 9431,
      "rend": 9432,
      "_FALSE": 9433,
      "RECT": 9434,
      "Äheader": 9435,
      "events": 9436,
      "AA": 9437,
      "ENABLE_": 9438,
      "fixed": 9439,
      "Usage": 9440,
      "ness": 9441,
      "Ädef": 9442,
      "_cmd_": 9443,
      "change_": 9444,
      "2c": 9445,
      "ÄÄbreak": 9446,
      "hb_": 9447,
      "options_": 9448,
      "\"{": 9449,
      "blk_": 9450,
      "EndÄ": 9451,
      "plat": 9452,
      "Ästack": 9453,
      "Äview": 9454,
      "_SEC": 9455,
      "OS_": 9456,
      "uuid": 9457,
      "Equal": 9458,
      "DBus": 9459,
      "dete": 9460,
      "alogÄ": 9461,
      "web": 9462,
      "destroy_": 9463,
      "Äph": 9464,
      "(%": 9465,
      "__ecereNameSpace__ecere__gui__": 9466,
      "----------------": 9467,
      "INI": 9468,
      "dÄto": 9469,
      "metr": 9470,
      "lv": 9471,
      "Äthe": 9472,
      "()Ä": 9473,
      "Tit": 9474,
      "Äread_": 9475,
      "LABEL": 9476,
      "DF_": 9477,
      "ool": 9478,
      "?\"": 9479,
      "_class": 9480,
      "value_get_": 9481,
      "curr_": 9482,
      "access_": 9483,
      "mx": 9484,
      "_CONTR": 9485,
      "EXIT_FAILURE": 9486,
      "pan": 9487,
      "EXEC": 9488,
      "rtxÄ": 9489,
      "_function": 9490,
      "adv": 9491,
      "ÄÄÄÄe": 9492,
      "mode_": 9493,
      "hide": 9494,
      "ÄÄb": 9495,
      "RS": 9496,
      "Ästrto": 9497,
      "leaseÄ": 9498,
      "rowsÄ": 9499,
      "optionÄ": 9500,
      "FORM": 9501,
      "DECL": 9502,
      "LOG_ERROR": 9503,
      "Builder": 9504,
      "\"n": 9505,
      "_PRI": 9506,
      "GETÄ": 9507,
      "task_data": 9508,
      "RefÄ": 9509,
      "toString": 9510,
      "UV": 9511,
      "\"faile": 9512,
      "USE": 9513,
      "completion": 9514,
      "totalÄ": 9515,
      "ks": 9516,
      "mix": 9517,
      "tingÄ": 9518,
      "colle": 9519,
      "bject": 9520,
      "language": 9521,
      "sqlite3_": 9522,
      "ptr_t": 9523,
      "Äg_strdupÄ": 9524,
      "iece": 9525,
      "unsignedÄintÄi": 9526,
      "variant_": 9527,
      "UNLOCK": 9528,
      "constÄvoidÄ": 9529,
      "ÄÄn": 9530,
      "xdr": 9531,
      "Mapp": 9532,
      "BASE_": 9533,
      "ÄconstÄvoidÄ": 9534,
      "COD": 9535,
      "Prev": 9536,
      "fif": 9537,
      "t'": 9538,
      "_glfw": 9539,
      "Ä0xf": 9540,
      "bar_": 9541,
      "ipv": 9542,
      "AMETER": 9543,
      "BI": 9544,
      "matrix_": 9545,
      "Ren": 9546,
      "ssize_tÄ": 9547,
      "sptr": 9548,
      "Prop": 9549,
      "freq": 9550,
      "ARD_": 9551,
      "jpeg_": 9552,
      "ws": 9553,
      "TOK": 9554,
      "ÄRe": 9555,
      "RESP": 9556,
      "Shape": 9557,
      "ÄÄÄÄgtk_": 9558,
      "ÄÄÄÄÄÄÄÄÄÄreturnÄ": 9559,
      "uidÄ": 9560,
      "_ptr_": 9561,
      "ifdefÄHAVE_": 9562,
      "Foc": 9563,
      "ÄÄÄÄÄÄÄÄswitchÄ": 9564,
      "BUIL": 9565,
      "questÄ": 9566,
      "engine_": 9567,
      "Äisl_": 9568,
      "Ärect": 9569,
      "========": 9570,
      "Äsup": 9571,
      "COM": 9572,
      "HASH": 9573,
      "E_C": 9574,
      "Area": 9575,
      "ÄHP": 9576,
      "Rate": 9577,
      "ÄÄÄÄÄÄÄÄÄÄÄÄÄÄÄÄforÄ": 9578,
      "Ächeck": 9579,
      "FIELD": 9580,
      "convert_": 9581,
      "NS_": 9582,
      "FF_": 9583,
      "StartÄ": 9584,
      "I2C": 9585,
      "pos_": 9586,
      "Cert": 9587,
      "orderÄ": 9588,
      "dims": 9589,
      "PG": 9590,
      "pidÄ": 9591,
      "GENER": 9592,
      "Db": 9593,
      "ATOR": 9594,
      "irq_": 9595,
      "High": 9596,
      "Tx": 9597,
      "MEMORY": 9598,
      "BOX": 9599,
      "OFFSET": 9600,
      "rateÄ": 9601,
      "ÄFL": 9602,
      "Total": 9603,
      "Unicode": 9604,
      "Äpass": 9605,
      "Ätest_": 9606,
      "cent": 9607,
      "Äcall": 9608,
      "LOT": 9609,
      "ond": 9610,
      ":%": 9611,
      "ÄconstÄstd": 9612,
      "simple_": 9613,
      "serial": 9614,
      "ÄstrlenÄ": 9615,
      ".1": 9616,
      "ÄSW": 9617,
      "Ä11": 9618,
      "time_tÄ": 9619,
      "inal": 9620,
      "LOW": 9621,
      "Container": 9622,
      "Put": 9623,
      "eldÄ": 9624,
      "VALID": 9625,
      "ÄÄÄÄÄÄÄÄb": 9626,
      "OPTION": 9627,
      "point_": 9628,
      "GF": 9629,
      "range_": 9630,
      "_CRE": 9631,
      "PG_": 9632,
      "VICE": 9633,
      "defaultÄ": 9634,
      "kindÄ": 9635,
      "ÄÄglewInfo": 9636,
      "Äwr": 9637,
      "ÄÄÄÄÄÄÄÄautoÄ": 9638,
      "safe": 9639,
      "axis": 9640,
      "ÄÄglewInfoFunc": 9641,
      "Transaction": 9642,
      "BASE": 9643,
      "Äpacket": 9644,
      "int8": 9645,
      "ANT": 9646,
      "_PER": 9647,
      "m\"": 9648,
      "defg": 9649,
      "ject_": 9650,
      "delete_": 9651,
      "ImageÄ": 9652,
      "locÄ": 9653,
      "sol": 9654,
      "keep": 9655,
      "operation": 9656,
      "hostname": 9657,
      "abort": 9658,
      "Operation": 9659,
      "mysql": 9660,
      "basic_": 9661,
      "ÄforÄ": 9662,
      "CRYP": 9663,
      "Änumber": 9664,
      "site": 9665,
      "g_signal_": 9666,
      "Äg_object_": 9667,
      "ÄÄbool": 9668,
      "Ädoc": 9669,
      "selector": 9670,
      "Information": 9671,
      "compile": 9672,
      "ÄSTR": 9673,
      "macro": 9674,
      "tailÄ": 9675,
      "2x": 9676,
      "seconds": 9677,
      "Äpoint": 9678,
      "ae": 9679,
      "wy_": 9680,
      "Datum": 9681,
      "type\"": 9682,
      "expected_": 9683,
      "hij": 9684,
      "ticle": 9685,
      "Ident": 9686,
      "ipp": 9687,
      "Äfor": 9688,
      "Äjson_": 9689,
      "Only": 9690,
      "ARE_": 9691,
      "gpio": 9692,
      "mr": 9693,
      "aft": 9694,
      "ÄdataÄ": 9695,
      "65": 9696,
      "x8": 9697,
      "ÄÄÄÄin": 9698,
      "mono_": 9699,
      "green": 9700,
      "DED": 9701,
      "backend": 9702,
      "gl_string": 9703,
      "ÄTREE_": 9704,
      "Äes": 9705,
      "Äposition": 9706,
      "theEnv": 9707,
      "epÄ": 9708,
      "foreach": 9709,
      "ÄString": 9710,
      "_CMD_": 9711,
      "Ä128": 9712,
      "Encod": 9713,
      "url_": 9714,
      "orith": 9715,
      "nano": 9716,
      "InstanceÄ": 9717,
      "caleÄ": 9718,
      "Ämake_": 9719,
      "NON": 9720,
      "ÄtypeÄ": 9721,
      "__pyx_v_": 9722,
      "Decl": 9723,
      "QUER": 9724,
      "erge": 9725,
      "ALO": 9726,
      "have_": 9727,
      "Fill": 9728,
      "container_": 9729,
      "Cha": 9730,
      "ÄÄm_": 9731,
      "tial_": 9732,
      "right_": 9733,
      "selected_": 9734,
      "lv_": 9735,
      "ITEM": 9736,
      "Short": 9737,
      "mq": 9738,
      "front": 9739,
      "endifÄÄÄÄÄÄÄÄ": 9740,
      "haveÄ": 9741,
      "Random": 9742,
      "ported": 9743,
      "HeightÄ": 9744,
      "Ävec": 9745,
      "scrol": 9746,
      "ÄPro": 9747,
      "to_string": 9748,
      "SC_": 9749,
      "ÄSI": 9750,
      "sic": 9751,
      "semb": 9752,
      "One": 9753,
      "enable_": 9754,
      "rowser": 9755,
      "encoder": 9756,
      "\\n\\n\"": 9757,
      "LineÄ": 9758,
      "rt_": 9759,
      "ating": 9760,
      "ÄÄÄÄelseÄÄÄÄÄÄ": 9761,
      "rpc_": 9762,
      "FW_": 9763,
      "imageÄ": 9764,
      "NC_": 9765,
      "ÄÄÄÄelseÄÄÄÄÄÄÄÄ": 9766,
      "/gnome": 9767,
      "speed": 9768,
      "Älock": 9769,
      "ÄSTAT": 9770,
      "_typeÄ": 9771,
      "WARN_": 9772,
      "optÄ": 9773,
      "\"InvalidÄ": 9774,
      "\"no": 9775,
      "viewÄ": 9776,
      "recv_": 9777,
      "wrap": 9778,
      "VIEW": 9779,
      "threads": 9780,
      "sqlite3": 9781,
      "d_name": 9782,
      "compression": 9783,
      "proxy_": 9784,
      "\"v": 9785,
      "sem": 9786,
      "Ädict": 9787,
      "ÄÄreturnÄtrue": 9788,
      "_put_": 9789,
      "trans_": 9790,
      "Ä__LINE__": 9791,
      "urationÄ": 9792,
      "enabledÄ": 9793,
      "ÄtoÄ": 9794,
      "shot": 9795,
      "in1": 9796,
      "Visible": 9797,
      "tid": 9798,
      "supportedÄ": 9799,
      "janus_": 9800,
      "ÄÄÄÄÄÄÄÄÄÄÄÄm_": 9801,
      ":Ä%sÄ": 9802,
      "ices": 9803,
      "thÄ": 9804,
      "pg_": 9805,
      "SED_": 9806,
      "defghij": 9807,
      "Machine": 9808,
      "mdÄ": 9809,
      "brid": 9810,
      "direction": 9811,
      "Database": 9812,
      "70": 9813,
      "calloc": 9814,
      "ACT": 9815,
      "TEMP": 9816,
      "Faile": 9817,
      "-Ä": 9818,
      "buck": 9819,
      "\"I": 9820,
      "915": 9821,
      "serverÄ": 9822,
      "Http": 9823,
      "\":": 9824,
      "Basic": 9825,
      "af_": 9826,
      "FORMAT": 9827,
      "loor": 9828,
      "OURCE_": 9829,
      "u32Ä": 9830,
      "errors": 9831,
      "Kind": 9832,
      "Rot": 9833,
      "9Ä": 9834,
      "45": 9835,
      "rand": 9836,
      "Ägit_": 9837,
      "entropy": 9838,
      "ioc": 9839,
      "ono": 9840,
      "file_name": 9841,
      "Simple": 9842,
      "3\"": 9843,
      "lib_": 9844,
      "Äfn": 9845,
      "REMO": 9846,
      "_parameter": 9847,
      "onlyÄ": 9848,
      "SUB": 9849,
      "ÄÄÄÄÄÄÄÄstructÄ": 9850,
      "UINT32": 9851,
      "specÄ": 9852,
      "isc": 9853,
      "URL": 9854,
      "UST": 9855,
      "lang": 9856,
      "Äwa": 9857,
      "Tick": 9858,
      "LIKE": 9859,
      "ANT_": 9860,
      "\"r\"": 9861,
      "Encode": 9862,
      "CB": 9863,
      "ÄÄgtk_": 9864,
      "ÄNGX_": 9865,
      "HAP": 9866,
      "WIN32": 9867,
      "ÄQt": 9868,
      "Äwe": 9869,
      "bn": 9870,
      "fun": 9871,
      "LABE": 9872,
      "addr_in": 9873,
      "rec_": 9874,
      "KERN_": 9875,
      "Const": 9876,
      "Ärt": 9877,
      "Cor": 9878,
      "dpy": 9879,
      "\"No": 9880,
      "Ädw": 9881,
      "mall": 9882,
      "lock_irq": 9883,
      "DIO": 9884,
      "tyÄ": 9885,
      "ÄPo": 9886,
      "_rec": 9887,
      "ture": 9888,
      "itu": 9889,
      "_ph": 9890,
      "ÄÄÄÄ_test_": 9891,
      "f\"": 9892,
      "SIZE_": 9893,
      "Controller": 9894,
      "_CLO": 9895,
      "_process_": 9896,
      "Ämatch": 9897,
      "Dec": 9898,
      "Binary": 9899,
      "Äcreate": 9900,
      "attach": 9901,
      "bounds": 9902,
      "exists": 9903,
      "REGIST": 9904,
      "localÄ": 9905,
      "ÄGFP_KERNEL": 9906,
      "Äpc": 9907,
      "die": 9908,
      "ÄÄchar": 9909,
      "remote_": 9910,
      "EDTLS_": 9911,
      "TIMEOUT": 9912,
      "MARK": 9913,
      "Cre": 9914,
      "proc_": 9915,
      "equ": 9916,
      "TOP": 9917,
      "skip_": 9918,
      "Äa_": 9919,
      "ments": 9920,
      "Camera": 9921,
      "Ädefined": 9922,
      "]\\n\"": 9923,
      "Ärhs": 9924,
      "shadow": 9925,
      "fol": 9926,
      "POINT": 9927,
      "pointÄ": 9928,
      "Sync": 9929,
      "ÄÄÄÄout": 9930,
      "MAXÄ": 9931,
      "LABEL_": 9932,
      "Äexpr": 9933,
      "utf8_": 9934,
      "alt_": 9935,
      "Äprefix": 9936,
      "zip": 9937,
      "NI": 9938,
      "pc_": 9939,
      "List_": 9940,
      "etch_": 9941,
      "GRA": 9942,
      "_CHAR": 9943,
      "Äcryp": 9944,
      "warningÄ": 9945,
      "AddressÄ": 9946,
      "ldÄ": 9947,
      "rn": 9948,
      "arena": 9949,
      "report_": 9950,
      "intÄerr": 9951,
      "ElementÄ": 9952,
      "substr": 9953,
      "Disable": 9954,
      "\"d": 9955,
      "ZSTD_": 9956,
      "ÄindexÄ": 9957,
      "Lat": 9958,
      "boost": 9959,
      "DA": 9960,
      "ÄMB": 9961,
      "TL_": 9962,
      "Äpx": 9963,
      "ÄnameÄ": 9964,
      "_CLI": 9965,
      "unique": 9966,
      "\"ÄÄÄ": 9967,
      "Entity": 9968,
      "ARB": 9969,
      "LOG_DEBUG": 9970,
      "Proxy": 9971,
      "archive_": 9972,
      "Wh": 9973,
      "connÄ": 9974,
      "iov": 9975,
      "concat": 9976,
      "ular": 9977,
      "ench": 9978,
      "OVER": 9979,
      "span": 9980,
      "entic": 9981,
      "UNC_": 9982,
      "OPY": 9983,
      "vent": 9984,
      "same": 9985,
      "Web": 9986,
      "rade": 9987,
      "Äpi": 9988,
      "Setting": 9989,
      "details": 9990,
      "Äsour": 9991,
      "GErrorÄ": 9992,
      "desk": 9993,
      "12_": 9994,
      "bh": 9995,
      "LOCAL": 9996,
      "Ävoid": 9997,
      "ÄÄÄÄÄÄÄÄQ": 9998,
      "runtime": 9999,
      "ieee": 10000,
      "contains": 10001,
      "ÄÄÄÄÄÄstructÄ": 10002,
      "ÄGtk": 10003,
      "\"ÄÄÄÄÄÄÄÄ": 10004,
      "go_": 10005,
      "Gl": 10006,
      "UID": 10007,
      "Äe_": 10008,
      "512": 10009,
      "Äof": 10010,
      "phy_": 10011,
      "AK": 10012,
      "'A": 10013,
      "42": 10014,
      "krb5_": 10015,
      "Sys": 10016,
      "Ä0xFFFF": 10017,
      "Exist": 10018,
      "TURE_": 10019,
      "spin_lock_irq": 10020,
      "pdata": 10021,
      "ÄE_": 10022,
      "ÄunsignedÄcharÄ": 10023,
      "packet_": 10024,
      "GROUP": 10025,
      "uriÄ": 10026,
      "tomÄ": 10027,
      "style_": 10028,
      "og": 10029,
      "fig_": 10030,
      "\"abcdefghij": 10031,
      "Url": 10032,
      "wchar": 10033,
      "DIO_": 10034,
      "10Ä": 10035,
      "ÄÄÄÄX": 10036,
      "ight_": 10037,
      "Limit": 10038,
      "imple": 10039,
      "lish": 10040,
      "itr": 10041,
      "MATCH": 10042,
      "shared_": 10043,
      "_CODE": 10044,
      "g2": 10045,
      "ÄreturnÄNULL": 10046,
      "\"\\": 10047,
      "ÄvÄ": 10048,
      "asm_": 10049,
      "ÄÄÄÄÄÄÄÄreturnÄtrue": 10050,
      "elements": 10051,
      "ERRORÄ": 10052,
      "SDL_": 10053,
      "08": 10054,
      "gotoÄdone": 10055,
      "_can": 10056,
      "ITER": 10057,
      "SQLITE_": 10058,
      "Äim": 10059,
      "ront": 10060,
      "connectionÄ": 10061,
      "95": 10062,
      "del_": 10063,
      "ÄÄGST_": 10064,
      "irc": 10065,
      "ledÄ": 10066,
      "Media": 10067,
      "CLASSÄ": 10068,
      "nm": 10069,
      "apr_": 10070,
      "ÄÄÄÄÄÄÄÄreturnÄ1": 10071,
      "AUTH": 10072,
      "file\"": 10073,
      "Äaj": 10074,
      "_count": 10075,
      "neigh": 10076,
      "_debug": 10077,
      "property_": 10078,
      "TAIN": 10079,
      "resolve": 10080,
      "lerÄ": 10081,
      "Äas": 10082,
      "\"T": 10083,
      "ÄÄÄÄB": 10084,
      "ÄSQL": 10085,
      "Ctrl": 10086,
      "_by_": 10087,
      "Äright": 10088,
      "Äva_": 10089,
      "tup": 10090,
      "ÄbufÄ": 10091,
      "Ämy_": 10092,
      "convert": 10093,
      "ÄÄÄÄaj": 10094,
      "Title": 10095,
      "xm": 10096,
      "lid": 10097,
      "SI_": 10098,
      "Äseq": 10099,
      "FLAGS_": 10100,
      "Emit": 10101,
      "undef": 10102,
      "EG": 10103,
      "=\"": 10104,
      "fs2_": 10105,
      "ÄDE": 10106,
      "Light": 10107,
      "disc": 10108,
      "icro": 10109,
      "ctedÄ": 10110,
      "CT_": 10111,
      "dian": 10112,
      "appendÄ": 10113,
      "ÄÄÄÄÄÄÄÄelseÄ": 10114,
      "Ähead": 10115,
      "REAM_": 10116,
      "DP": 10117,
      "sis": 10118,
      "Pin": 10119,
      "commit_": 10120,
      "GLE": 10121,
      "gpointerÄ": 10122,
      "AMPLE": 10123,
      "ÄfailedÄ": 10124,
      "xl": 10125,
[...]
